{
  "version": "1.0",
  "truncation": null,
  "padding": null,
  "added_tokens": [
    {
      "id": 0,
      "content": "<pad>",
      "single_word": false,
      "lstrip": false,
      "rstrip": false,
      "normalized": false,
      "special": true
    },
    {
      "id": 1,
      "content": "<s>",
      "single_word": false,
      "lstrip": false,
      "rstrip": false,
      "normalized": false,
      "special": true
    },
    {
      "id": 2,
      "content": "</s>",
      "single_word": false,
      "lstrip": false,
      "rstrip": false,
      "normalized": false,
      "special": true
    },
    {
      "id": 3,
      "content": "<unk>",
      "single_word": false,
      "lstrip": false,
      "rstrip": false,
      "normalized": false,
      "special": true
    }
  ],
  "normalizer": null,
  "pre_tokenizer": {
    "type": "ByteLevel",
    "add_prefix_space": true,
    "trim_offsets": true,
    "use_regex": true
  },
  "post_processor": null,
  "decoder": null,
  "model": {
    "type": "BPE",
    "dropout": null,
    "unk_token": null,
    "continuing_subword_prefix": null,
    "end_of_word_suffix": null,
    "fuse_unk": false,
    "byte_fallback": false,
    "ignore_merges": false,
    "vocab": {
      "<pad>": 0,
      "<s>": 1,
      "</s>": 2,
      "<unk>": 3,
      "!": 4,
      "\"": 5,
      "$": 6,
      "&": 7,
      "'": 8,
      "(": 9,
      ")": 10,
      "*": 11,
      ",": 12,
      "-": 13,
      ".": 14,
      "2": 15,
      "3": 16,
      "5": 17,
      "6": 18,
      "7": 19,
      ":": 20,
      ";": 21,
      ">": 22,
      "?": 23,
      "A": 24,
      "B": 25,
      "C": 26,
      "D": 27,
      "E": 28,
      "F": 29,
      "G": 30,
      "H": 31,
      "I": 32,
      "J": 33,
      "K": 34,
      "L": 35,
      "M": 36,
      "N": 37,
      "O": 38,
      "P": 39,
      "Q": 40,
      "R": 41,
      "S": 42,
      "T": 43,
      "U": 44,
      "V": 45,
      "W": 46,
      "X": 47,
      "Y": 48,
      "Z": 49,
      "[": 50,
      "]": 51,
      "^": 52,
      "_": 53,
      "`": 54,
      "a": 55,
      "b": 56,
      "c": 57,
      "d": 58,
      "e": 59,
      "f": 60,
      "g": 61,
      "h": 62,
      "i": 63,
      "j": 64,
      "k": 65,
      "l": 66,
      "m": 67,
      "n": 68,
      "o": 69,
      "p": 70,
      "q": 71,
      "r": 72,
      "s": 73,
      "t": 74,
      "u": 75,
      "v": 76,
      "w": 77,
      "x": 78,
      "y": 79,
      "z": 80,
      "{": 81,
      "|": 82,
      "~": 83,
      "¡": 84,
      "¢": 85,
      "£": 86,
      "¤": 87,
      "¥": 88,
      "¦": 89,
      "§": 90,
      "¨": 91,
      "©": 92,
      "ª": 93,
      "«": 94,
      "¬": 95,
      "®": 96,
      "¯": 97,
      "°": 98,
      "±": 99,
      "²": 100,
      "³": 101,
      "´": 102,
      "µ": 103,
      "¶": 104,
      "·": 105,
      "¸": 106,
      "¹": 107,
      "º": 108,
      "»": 109,
      "¼": 110,
      "½": 111,
      "¾": 112,
      "¿": 113,
      "Â": 114,
      "Ã": 115,
      "Ä": 116,
      "Å": 117,
      "Ç": 118,
      "É": 119,
      "Î": 120,
      "Ï": 121,
      "Ð": 122,
      "Ñ": 123,
      "â": 124,
      "ã": 125,
      "ä": 126,
      "å": 127,
      "æ": 128,
      "ç": 129,
      "è": 130,
      "é": 131,
      "î": 132,
      "ï": 133,
      "ĉ": 134,
      "Ċ": 135,
      "Ġ": 136,
      "Ģ": 137,
      "ģ": 138,
      "Ĥ": 139,
      "ĥ": 140,
      "Ħ": 141,
      "ħ": 142,
      "Ĩ": 143,
      "ĩ": 144,
      "Ī": 145,
      "ī": 146,
      "Ĭ": 147,
      "ĭ": 148,
      "Į": 149,
      "į": 150,
      "İ": 151,
      "ı": 152,
      "Ĳ": 153,
      "ĳ": 154,
      "Ĵ": 155,
      "ĵ": 156,
      "Ķ": 157,
      "ķ": 158,
      "ĸ": 159,
      "Ĺ": 160,
      "ĺ": 161,
      "Ļ": 162,
      "ļ": 163,
      "Ľ": 164,
      "ľ": 165,
      "Ŀ": 166,
      "ŀ": 167,
      "Ł": 168,
      "ł": 169,
      "Ń": 170,
      "ï¼": 171,
      "ä¸": 172,
      "ï¼Į": 173,
      "äº": 174,
      "ãĢ": 175,
      "ãĢĤ": 176,
      "âĢ": 177,
      "å¤": 178,
      "åı": 179,
      "ä»": 180,
      "ä¹": 181,
      "æĿ": 182,
      "ï¼ļ": 183,
      "åħ": 184,
      "å®": 185,
      "äºĨ": 186,
      "âĢľ": 187,
      "ä½": 188,
      "è¿": 189,
      "ä¸į": 190,
      "éģ": 191,
      "ï¼ļâĢľ": 192,
      "âĢĿ": 193,
      "åĲ": 194,
      "å°": 195,
      "æĺ": 196,
      "æĪ": 197,
      "ä¸Ģ": 198,
      "è¯": 199,
      "éģĵ": 200,
      "æľ": 201,
      "æĹ": 202,
      "æĿ¥": 203,
      "çļ": 204,
      "ĠĠ": 205,
      "äºº": 206,
      "å¾": 207,
      "åį": 208,
      "çļĦ": 209,
      "Ġt": 210,
      "æĺ¯": 211,
      "åİ": 212,
      "åĪ": 213,
      "æŃ": 214,
      "åŃ": 215,
      "ãĢĤâĢĿ": 216,
      "ĠĊ": 217,
      "æĪĳ": 218,
      "åľ": 219,
      "æī": 220,
      "åĽ": 221,
      "è§": 222,
      "åĨ": 223,
      "èĢ": 224,
      "ï¼İ": 225,
      "éĩ": 226,
      "å¿": 227,
      "åĩ": 228,
      "éĤ": 229,
      "èµ": 230,
      "he": 231,
      "éĹ": 232,
      "ä¸ª": 233,
      "çİ": 234,
      "å¥": 235,
      "éĤ£": 236,
      "å¼": 237,
      "åİ»": 238,
      "æľī": 239,
      "ä»ĸ": 240,
      "è¯´": 241,
      "ä½ł": 242,
      "å¤§": 243,
      "ä¼": 244,
      "å¦": 245,
      "æĽ": 246,
      "è¿Ļ": 247,
      "æķ": 248,
      "ä¸Ĭ": 249,
      "æĢ": 250,
      "ï¼ģ": 251,
      "è§ģ": 252,
      "æĬ": 253,
      "ä¾": 254,
      "ä¹ĭ": 255,
      "å¾Ĺ": 256,
      "ĠĠĠ": 257,
      "éĩĮ": 258,
      "Ġa": 259,
      "çĶ": 260,
      "åľ¨": 261,
      "å¸": 262,
      "ä¸ĭ": 263,
      "è¡": 264,
      "çĿ": 265,
      "å·": 266,
      "èĩ": 267,
      "ä¹Ł": 268,
      "è´": 269,
      "ou": 270,
      "åŃĲ": 271,
      "ï¼Ł": 272,
      "åıª": 273,
      "Ġs": 274,
      "æĸ": 275,
      "çľ": 276,
      "æĭ": 277,
      "åĳ": 278,
      "çĽ": 279,
      "æ±": 280,
      "çŁ": 281,
      "é©": 282,
      "å°Ĩ": 283,
      "çĿĢ": 284,
      "åº": 285,
      "Ġm": 286,
      "åıĪ": 287,
      "éĥ": 288,
      "åĩº": 289,
      "ç»": 290,
      "Ġw": 291,
      "in": 292,
      "å¹": 293,
      "Ħ¿": 294,
      "éĢ": 295,
      "ä¾¿": 296,
      "re": 297,
      "å±": 298,
      "ha": 299,
      "è®": 300,
      "å¯": 301,
      "åĨĽ": 302,
      "éĿ": 303,
      "é©¬": 304,
      "åī": 305,
      "çŃ": 306,
      "åĦ¿": 307,
      "æĽ°": 308,
      "åĬ": 309,
      "æĹ¥": 310,
      "å¤´": 311,
      "Ġthe": 312,
      "å§": 313,
      "è¡Į": 314,
      "æŃ¤": 315,
      "nd": 316,
      "ä¸Ń": 317,
      "ä¸ī": 318,
      "Ġb": 319,
      "åĪ°": 320,
      "å½": 321,
      "æĥ": 322,
      "ç¬": 323,
      "åĽŀ": 324,
      "æĹ¶": 325,
      "å¥½": 326,
      "å¦Ĥ": 327,
      "åĵ": 328,
      "ä¸¤": 329,
      "æ°": 330,
      "å®¶": 331,
      "is": 332,
      "è¾": 333,
      "äºĮ": 334,
      "è·": 335,
      "ï¼Ľ": 336,
      "éĥ½": 337,
      "æĶ": 338,
      "æŀ": 339,
      "èĢģ": 340,
      "èĩª": 341,
      "çŁ¥": 342,
      "æ²": 343,
      "or": 344,
      "å°ı": 345,
      "åħµ": 346,
      "å¤©": 347,
      "æ¯": 348,
      "ä¸İ": 349,
      "çľĭ": 350,
      "åīį": 351,
      "å®Ŀ": 352,
      "ä»¬": 353,
      "èĥ": 354,
      "¦ģ": 355,
      "å¤ª": 356,
      "è°": 357,
      "çİĭ": 358,
      "çİī": 359,
      "çĪ": 360,
      "ä½ķ": 361,
      "èĢħ": 362,
      "éĻ": 363,
      "ï¼ŁâĢĿ": 364,
      "ä»Ĭ": 365,
      "Ġf": 366,
      "ãĢģ": 367,
      "åĲ¬": 368,
      "ĠI": 369,
      "èĭ": 370,
      "å£": 371,
      "èµ·": 372,
      "è¦ģ": 373,
      "æİ": 374,
      "er": 375,
      "éĺ": 376,
      "ï¼ģâĢĿ": 377,
      "å°±": 378,
      "å±±": 379,
      "å¿ĥ": 380,
      "ll": 381,
      "åĸ": 382,
      "äºĭ": 383,
      "åĴ": 384,
      "çŃī": 385,
      "åı¯": 386,
      "ä¿": 387,
      "it": 388,
      "åį´": 389,
      "æģ": 390,
      "ä¸º": 391,
      "on": 392,
      "ç¬ĳ": 393,
      "æĹł": 394,
      "ç½": 395,
      "åĢ": 396,
      "åģ": 397,
      "éĹ¨": 398,
      "è¢": 399,
      "éĿ¢": 400,
      "é£": 401,
      "ç«": 402,
      "èº": 403,
      "æŃ£": 404,
      "æĬĬ": 405,
      "åı«": 406,
      "Ġd": 407,
      "ä¹Ī": 408,
      "åĲİ": 409,
      "Ġc": 410,
      "åįģ": 411,
      "è¿ĩ": 412,
      "çº": 413,
      "çģ": 414,
      "ä¼Ĺ": 415,
      "åĿ": 416,
      "æĺİ": 417,
      "æīĵ": 418,
      "Ġn": 419,
      "Ġl": 420,
      "Ġy": 421,
      "es": 422,
      "è´¾": 423,
      "æ±Ł": 424,
      "en": 425,
      "æĻ": 426,
      "æ³": 427,
      "çĻ": 428,
      "éĽ": 429,
      "éĴ": 430,
      "æ¬": 431,
      "ç¥": 432,
      "æĮ": 433,
      "èĪ": 434,
      "Ġth": 435,
      "éĹ®": 436,
      "åŁ": 437,
      "é¡": 438,
      "éļ": 439,
      "ar": 440,
      "çī": 441,
      "é¢": 442,
      "èº«": 443,
      "Ġh": 444,
      "åħ¬": 445,
      "Ġo": 446,
      "å®ĭ": 447,
      "Ġto": 448,
      "èµ°": 449,
      "èĬ": 450,
      "Ġyou": 451,
      "æīĭ": 452,
      "çĦ": 453,
      "Ġp": 454,
      "ĠT": 455,
      "è¿Ľ": 456,
      "è½": 457,
      "èĻ": 458,
      "åħĪ": 459,
      "çĽ¸": 460,
      "è¡ĮèĢħ": 461,
      "è¿ĺ": 462,
      "å½ĵ": 463,
      "éķ": 464,
      "åĶ": 465,
      "hat": 466,
      "éħ": 467,
      "åŁİ": 468,
      "å¸Ī": 469,
      "ä»¥": 470,
      "æł": 471,
      "åĮ": 472,
      "èį": 473,
      "ç®": 474,
      "ä¸Ģä¸ª": 475,
      "ĠA": 476,
      "åľ°": 477,
      "å¨": 478,
      "çĶŁ": 479,
      "¨Ģ": 480,
      "å¤Ħ": 481,
      "é»": 482,
      "äºĽ": 483,
      "åĴĮ": 484,
      "è¨Ģ": 485,
      "ç§": 486,
      "Ġhe": 487,
      "æĵ": 488,
      "åħ¥": 489,
      "å¼ł": 490,
      "èĭ¥": 491,
      "åĽĽ": 492,
      "æĦ": 493,
      "è¯Ŀ": 494,
      "æ¸": 495,
      "ä½ı": 496,
      "èĢĮ": 497,
      "äºİ": 498,
      "æĸ¹": 499,
      "è·¯": 500,
      "å·²": 501,
      "ve": 502,
      "ot": 503,
      "æĿİ": 504,
      "åĪĨ": 505,
      "å®Ŀçİī": 506,
      "ĥ§": 507,
      "ä¸Ķ": 508,
      "Ġand": 509,
      "çĦ¶": 510,
      "æµ": 511,
      "st": 512,
      "ow": 513,
      "ing": 514,
      "å¤ļ": 515,
      "éķ¿": 516,
      "å®ĭæ±Ł": 517,
      "Ġof": 518,
      "an": 519,
      "åĽł": 520,
      "èĤ": 521,
      "om": 522,
      "Ġg": 523,
      "äºĶ": 524,
      "æ´": 525,
      "åĲĥ": 526,
      "å®ĺ": 527,
      "éĵ": 528,
      "èĩ³": 529,
      "æĿĢ": 530,
      "è¯·": 531,
      "éĩĳ": 532,
      "å§Ĳ": 533,
      "çĶ¨": 534,
      "å£°": 535,
      "äºĳ": 536,
      "åŃĻ": 537,
      "ç¬ĳéģĵ": 538,
      "æ²¡": 539,
      "ç©": 540,
      "å®ī": 541,
      "çĲ": 542,
      "at": 543,
      "éħĴ": 544,
      "ä½¿": 545,
      "åģļ": 546,
      "åħ«": 547,
      "æŃ»": 548,
      "åıĸ": 549,
      "å¼Ł": 550,
      "æį": 551,
      "èĦ": 552,
      "è¥": 553,
      "æķĻ": 554,
      "Ġbe": 555,
      "æ°´": 556,
      "æīį": 557,
      "è¾¹": 558,
      "èĲ": 559,
      "é¦": 560,
      "æĢİ": 561,
      "çķ": 562,
      "ç´": 563,
      "æ·": 564,
      "ä¸ľ": 565,
      "ä¸»": 566,
      "åĵ¥": 567,
      "ĠW": 568,
      "åĥ§": 569,
      "åĳ½": 570,
      "åĨį": 571,
      "ä»¤": 572,
      "å¤ĸ": 573,
      "ä¸¤ä¸ª": 574,
      "éĶ": 575,
      "å²": 576,
      "åı£": 577,
      "se": 578,
      "éª": 579,
      "è¥¿": 580,
      "ç½¢": 581,
      "çĤ": 582,
      "çĪ¶": 583,
      "åĿĲ": 584,
      "å¼ķ": 585,
      "å¿ħ": 586,
      "ç²": 587,
      "å¼Ģ": 588,
      "éŃ": 589,
      "å¨ĺ": 590,
      "å·ŀ": 591,
      "æŁ": 592,
      "æĵį": 593,
      "ä»İ": 594,
      "åħ¶": 595,
      "æķ¢": 596,
      "é¥": 597,
      "çĮ": 598,
      "å¤«": 599,
      "é«": 600,
      "åĢĴ": 601,
      "Ġmy": 602,
      "æ¯į": 603,
      "éĤ£éĩĮ": 604,
      "æĹ©": 605,
      "åĨħ": 606,
      "é¢Ĩ": 607,
      "Ġin": 608,
      "æĶ¾": 609,
      "æĤ": 610,
      "ä¹ĥ": 611,
      "ä½ľ": 612,
      "Ġha": 613,
      "æĥ³": 614,
      "ce": 615,
      "åĩł": 616,
      "æĬ¥": 617,
      "è¶": 618,
      "å¹´": 619,
      "å¿Ļ": 620,
      "æĦı": 621,
      "åĲĦ": 622,
      "å¾·": 623,
      "æĭ¿": 624,
      "åħĦ": 625,
      "åħ³": 626,
      "le": 627,
      "ä¹¦": 628,
      "åĲ¾": 629,
      "èī": 630,
      "äºĨä¸Ģ": 631,
      "çĶļ": 632,
      "å¾Ģ": 633,
      "é«ĺ": 634,
      "ay": 635,
      "æ°Ķ": 636,
      "èĬ±": 637,
      "èĥ½": 638,
      "åİŁ": 639,
      "ç¦": 640,
      "åĲĮ": 641,
      "æľª": 642,
      "åĸľ": 643,
      "è¢«": 644,
      "é£İ": 645,
      "çĻ¾": 646,
      "æŃ¦": 647,
      "å¦ĸ": 648,
      "çĪ·": 649,
      "ä¸įçŁ¥": 650,
      "åĲį": 651,
      "çģ«": 652,
      "ä¼ļ": 653,
      "çľŁ": 654,
      "åį³": 655,
      "ld": 656,
      "äº²": 657,
      "å®ļ": 658,
      "ir": 659,
      "æ¢": 660,
      "ç¥ŀ": 661,
      "æŀĹ": 662,
      "æı": 663,
      "et": 664,
      "åıªè§ģ": 665,
      "å¹³": 666,
      "æħ": 667,
      "éĹ´": 668,
      "æĢ¥": 669,
      "æĪĺ": 670,
      "ed": 671,
      "åİ»äºĨ": 672,
      "éĹ»": 673,
      "å¯¨": 674,
      "æľĽ": 675,
      "ut": 676,
      "æĽ¹": 677,
      "æĪĳä»¬": 678,
      "èĳ": 679,
      "æ¡": 680,
      "æīĢ": 681,
      "éĢģ": 682,
      "ä¸ĩ": 683,
      "èĹ": 684,
      "åºĶ": 685,
      "ç¼": 686,
      "å»": 687,
      "åĩ¤": 688,
      "å¤ľ": 689,
      "çļĨ": 690,
      "çĥ": 691,
      "åĽ½": 692,
      "æĸĩ": 693,
      "èİ": 694,
      "ĠB": 695,
      "æ®": 696,
      "é¸": 697,
      "Ġme": 698,
      "è¿ŀ": 699,
      "åľ£": 700,
      "æĭľ": 701,
      "å£«": 702,
      "im": 703,
      "å¥³": 704,
      "æ£": 705,
      "å¸¦": 706,
      "çĭ": 707,
      "ĠS": 708,
      "æ»": 709,
      "çİĦ": 710,
      "åĪ«": 711,
      "çĹ": 712,
      "æĪĲ": 713,
      "æ±ī": 714,
      "ith": 715,
      "é£ŀ": 716,
      "Ġnot": 717,
      "åŃĶ": 718,
      "æĢª": 719,
      "è§£": 720,
      "'s": 721,
      "åıĳ": 722,
      "çĸ": 723,
      "ĠH": 724,
      "ç¤": 725,
      "å°½": 726,
      "å©": 727,
      "ch": 728,
      "é¾": 729,
      "ç®¡": 730,
      "çĻ½": 731,
      "æĪĴ": 732,
      "å¾ħ": 733,
      "Ġthat": 734,
      "éļ¾": 735,
      "æľ¬": 736,
      "åºľ": 737,
      "å¹¶": 738,
      "ä¹Łä¸į": 739,
      "Ġis": 740,
      "æł·": 741,
      "ĠM": 742,
      "åĩºæĿ¥": 743,
      "èħ": 744,
      "èµ¶": 745,
      "æĳ": 746,
      "ï¼Ł\"": 747,
      "gh": 748,
      "çı": 749,
      "åįĥ": 750,
      "åįĬ": 751,
      "åĪĺ": 752,
      "èĹı": 753,
      "ĠAnd": 754,
      "æĽ¾": 755,
      "åĲ´": 756,
      "Ġfor": 757,
      "å¦Ĥä½ķ": 758,
      "æķ°": 759,
      "åįĹ": 760,
      "çĽ´": 761,
      "é½": 762,
      "åĪĢ": 763,
      "å°ļ": 764,
      "å¤ªå¤ª": 765,
      "Ġu": 766,
      "æľĪ": 767,
      "ke": 768,
      "æĶ¶": 769,
      "åĶĲ": 770,
      "æĲ": 771,
      "åķ": 772,
      "å¥¶": 773,
      "å®Ī": 774,
      "è®¡": 775,
      "ĠC": 776,
      "ä»Ģ": 777,
      "Ġwe": 778,
      "åĳ¢": 779,
      "çł": 780,
      "ä¸įå¾Ĺ": 781,
      "è¿ĻéĩĮ": 782,
      "å¸ĪçĪ¶": 783,
      "æĽ´": 784,
      "our": 785,
      "æŀľ": 786,
      "åħ«æĪĴ": 787,
      "æĢİä¹Ī": 788,
      "çİĦå¾·": 789,
      "ç¿": 790,
      "oo": 791,
      "å¤«äºº": 792,
      "ä»Ģä¹Ī": 793,
      "æĴ": 794,
      "åĳĬ": 795,
      "æĪ¿": 796,
      "çŁ³": 797,
      "æ¬²": 798,
      "é¾Ļ": 799,
      "éĺµ": 800,
      "åĭ": 801,
      "æİ¥": 802,
      "ill": 803,
      "é»Ħ": 804,
      "Ġe": 805,
      "è´¼": 806,
      "éļı": 807,
      "æ³ķ": 808,
      "æķĳ": 809,
      "ç¾": 810,
      "æ¶": 811,
      "åŃĶæĺİ": 812,
      "å¿½": 813,
      "æķħ": 814,
      "æĥĬ": 815,
      "ç«ĭ": 816,
      "çĤ¹": 817,
      "æļ": 818,
      "Ġwith": 819,
      "her": 820,
      "åĬ¨": 821,
      "èĥľ": 822,
      "åĩ¤å§Ĳ": 823,
      "éľ": 824,
      "è¯´éģĵ": 825,
      "èµ·æĿ¥": 826,
      "ä¸įæĺ¯": 827,
      "éĿĴ": 828,
      "çľ¼": 829,
      "å¯¹": 830,
      "ç»ı": 831,
      "èĻ½": 832,
      "é½Ĳ": 833,
      "æ¬¡": 834,
      "è¡£": 835,
      "æ¸ħ": 836,
      "ç©º": 837,
      "è£": 838,
      "Ġit": 839,
      "èĮ": 840,
      "ent": 841,
      "è¡ĮèĢħéģĵ": 842,
      "Ġyour": 843,
      "æĿ¾": 844,
      "è°ģ": 845,
      "è´¾æ¯į": 846,
      "åĲĳ": 847,
      "è¿İ": 848,
      "åŃĹ": 849,
      "éģĤ": 850,
      "ä¼Ĺäºº": 851,
      "ad": 852,
      "èĪ¹": 853,
      "èı": 854,
      "å¯»": 855,
      "ç¤¼": 856,
      "åĲĪ": 857,
      "å¦Ĥä»Ĭ": 858,
      "è¿Ļä¸ª": 859,
      "ri": 860,
      "å¤ĩ": 861,
      "æľĿ": 862,
      "ĠO": 863,
      "é¦Ļ": 864,
      "çĳ": 865,
      "ä¹ī": 866,
      "ä½Ĩ": 867,
      "æĢķ": 868,
      "è§ģäºĨ": 869,
      "Ġthou": 870,
      "æ±Ŀ": 871,
      "åł": 872,
      "å°ĳ": 873,
      "è®¸": 874,
      "Ġst": 875,
      "èĸ": 876,
      "çŀ": 877,
      "å©Ĩ": 878,
      "æ·±": 879,
      "ç²¾": 880,
      "æ¨": 881,
      "æĥħ": 882,
      "æĹ¢": 883,
      "éĵ¶": 884,
      "Ġk": 885,
      "ĠL": 886,
      "'d": 887,
      "åħī": 888,
      "æĺ¥": 889,
      "éĻį": 890,
      "ome": 891,
      "Ġhis": 892,
      "å¿«": 893,
      "å·¦": 894,
      "äº¦": 895,
      "è¿ĳ": 896,
      "åĸĿ": 897,
      "çº¢": 898,
      "å§ĳ": 899,
      "ç¢": 900,
      "åĺ": 901,
      "ä»ĬæĹ¥": 902,
      "ä½łä»¬": 903,
      "ĠF": 904,
      "ĠG": 905,
      "å°ĨåĨĽ": 906,
      "åĶ¤": 907,
      "è±": 908,
      "ä¸īèĹı": 909,
      "ght": 910,
      "è¯¸": 911,
      "EN": 912,
      "è¢Ń": 913,
      "çĲĨ": 914,
      "èĪ¬": 915,
      "ä½Ļ": 916,
      "åĨ²": 917,
      "çĬ": 918,
      "éĢĢ": 919,
      "åĲ¬äºĨ": 920,
      "Ġre": 921,
      "ord": 922,
      "id": 923,
      "ä¸ĢéĿ¢": 924,
      "å·®": 925,
      "ra": 926,
      "ĠThe": 927,
      "Ġhave": 928,
      "ä¸ĥ": 929,
      "é»Ľ": 930,
      "å¦ĤæŃ¤": 931,
      "éŃı": 932,
      "ä¼ĳ": 933,
      "ä¼ı": 934,
      "åıĹ": 935,
      "é»Ľçİī": 936,
      "åı¸": 937,
      "ä¹±": 938,
      "Ġhim": 939,
      "IN": 940,
      "ly": 941,
      "å¹²": 942,
      "Ġli": 943,
      "æĿ¨": 944,
      "éĩį": 945,
      "ä¼¼": 946,
      "ç¬¬": 947,
      "æĢ§": 948,
      "as": 949,
      "éĴ±": 950,
      "æ²Ļ": 951,
      "ç»Ĩ": 952,
      "å¤§åľ£": 953,
      "ä¸įæķ¢": 954,
      "çī©": 955,
      "ĠP": 956,
      "åı³": 957,
      "å¦¹": 958,
      "çķĻ": 959,
      "é¹": 960,
      "Ġthis": 961,
      "åĬĽ": 962,
      "æ¯ķ": 963,
      "ä¸«": 964,
      "èĩ£": 965,
      "ur": 966,
      "çŃĶ": 967,
      "é¼": 968,
      "åıªæĺ¯": 969,
      "ä¿Ŀ": 970,
      "æģĲ": 971,
      "IO": 972,
      "al": 973,
      "Ġso": 974,
      "è¿ľ": 975,
      "åıĺ": 976,
      "å¸¸": 977,
      "é²": 978,
      "è°¢": 979,
      "èģ": 980,
      "è®®": 981,
      "çª": 982,
      "éŁ": 983,
      "ä¿¡": 984,
      "èī²": 985,
      "æıĲ": 986,
      "åħŃ": 987,
      "å®«": 988,
      "æĺŁ": 989,
      "å¸ĥ": 990,
      "åĵŃ": 991,
      "Ġas": 992,
      "ä»Ļ": 993,
      "çŁ£": 994,
      "ä½į": 995,
      "ä¼ł": 996,
      "Ġde": 997,
      "åºĦ": 998,
      "éĿŀ": 999,
      "åĵ¥åĵ¥": 1000,
      "å®Ĺ": 1001,
      "æĢĿ": 1002,
      "è½¬": 1003,
      "ç»Ļ": 1004,
      "èĻİ": 1005,
      "Ġon": 1006,
      "äºĮäºº": 1007,
      "çĹħ": 1008,
      "æĿ¥äºĨ": 1009,
      "åħĦå¼Ł": 1010,
      "é¡»": 1011,
      "æĻļ": 1012,
      "èĲ½": 1013,
      "åĮĹ": 1014,
      "åį´è¯´": 1015,
      "èİ«": 1016,
      "è¯Ń": 1017,
      "ä¾Ŀ": 1018,
      "èĤ¯": 1019,
      "åĳ¨": 1020,
      "è§Ĥ": 1021,
      "å«": 1022,
      "ĠR": 1023,
      "å¦ĩ": 1024,
      "å·±": 1025,
      "èĸĽ": 1026,
      "ore": 1027,
      "åĲ¬å¾Ĺ": 1028,
      "æģ©": 1029,
      "èĴ": 1030,
      "æĿ¡": 1031,
      "éĢµ": 1032,
      "ä¸įèĥ½": 1033,
      "åĴĮå°ļ": 1034,
      "è¢Ńäºº": 1035,
      "åİ®": 1036,
      "ro": 1037,
      "æŃ¥": 1038,
      "ĠN": 1039,
      "å®ŀ": 1040,
      "å¿µ": 1041,
      "æĢĴ": 1042,
      "åĬŁ": 1043,
      "æĬķ": 1044,
      "hi": 1045,
      "åıĬ": 1046,
      "å½Ĵ": 1047,
      "æĹĹ": 1048,
      "å¥ı": 1049,
      "è·Ł": 1050,
      "æĿİéĢµ": 1051,
      "åİŁæĿ¥": 1052,
      "éĴĹ": 1053,
      "èľ": 1054,
      "äº¤": 1055,
      "å§ĳå¨ĺ": 1056,
      "ould": 1057,
      "æķ£": 1058,
      "ood": 1059,
      "AR": 1060,
      "åĲĽ": 1061,
      "éº": 1062,
      "å¥Ķ": 1063,
      "å¸Ŀ": 1064,
      "æ»¡": 1065,
      "æ´ŀ": 1066,
      "åıªå¾Ĺ": 1067,
      "æ¥": 1068,
      "å§ĵ": 1069,
      "é¥Ń": 1070,
      "ï¼ļ\"": 1071,
      "çİĭå¤«äºº": 1072,
      "èĥĮ": 1073,
      "å®¢": 1074,
      "ä¾¯": 1075,
      "è´¥": 1076,
      "èįī": 1077,
      "é¦ĸ": 1078,
      "ck": 1079,
      "åĨĽé©¬": 1080,
      "éĺ³": 1081,
      "ain": 1082,
      "é¬": 1083,
      "å®ĿéĴĹ": 1084,
      "æĿĥ": 1085,
      "çł´": 1086,
      "æĦ¿": 1087,
      "ver": 1088,
      "ç½ª": 1089,
      "çĿ¡": 1090,
      "ç¨": 1091,
      "æĶ¿": 1092,
      "å¾Ĵ": 1093,
      "è§ī": 1094,
      "å¦Ī": 1095,
      "æİ¢": 1096,
      "ĠY": 1097,
      "ä¸įåı¯": 1098,
      "åĪĻ": 1099,
      "ä»ĸä»¬": 1100,
      "æħĮ": 1101,
      "çļĦäºº": 1102,
      "æŃ¦æĿ¾": 1103,
      "ä¸ĸ": 1104,
      "åħ¨": 1105,
      "åľŁ": 1106,
      "æ±Ĥ": 1107,
      "çħ": 1108,
      "éĢļ": 1109,
      "æĮĩ": 1110,
      "æŀª": 1111,
      "æľīä¸Ģ": 1112,
      "å¤±": 1113,
      "ä¹Ŀ": 1114,
      "est": 1115,
      "ä½Ľ": 1116,
      "Ġsha": 1117,
      "åĶĲåĥ§": 1118,
      "Ġthy": 1119,
      "åĳĺ": 1120,
      "æ£Ĵ": 1121,
      "åķĨ": 1122,
      "èĭ¦": 1123,
      "å¿ł": 1124,
      "åİ¿": 1125,
      "æ¯Ķ": 1126,
      "ess": 1127,
      "è½¦": 1128,
      "æķĮ": 1129,
      "å¾Ħ": 1130,
      "æĺ¯ä¸ª": 1131,
      "Ġwill": 1132,
      "çĽĸ": 1133,
      "æ¹": 1134,
      "ä»¶": 1135,
      "ä¸«å¤´": 1136,
      "Ġdo": 1137,
      "ea": 1138,
      "ç«Ł": 1139,
      "éŃĶ": 1140,
      "æ¢ģ": 1141,
      "ä¿Ĭ": 1142,
      "ï¼ģ\"": 1143,
      "åĤ": 1144,
      "éĵģ": 1145,
      "æĩ": 1146,
      "æľį": 1147,
      "å°ī": 1148,
      "Ġno": 1149,
      "am": 1150,
      "èĦļ": 1151,
      "å®³": 1152,
      "è®¤": 1153,
      "åĬ¿": 1154,
      "å»¶": 1155,
      "èĢģå¤ªå¤ª": 1156,
      "è½»": 1157,
      "å§¨": 1158,
      "èĩªå·±": 1159,
      "åĢĻ": 1160,
      "ĠE": 1161,
      "æµ·": 1162,
      "æĽ¹æĵį": 1163,
      "æŃ£æĺ¯": 1164,
      "å¤į": 1165,
      "å¥ī": 1166,
      "çģµ": 1167,
      "æľ±": 1168,
      "æ®¿": 1169,
      "Ġbut": 1170,
      "éĻĪ": 1171,
      "ĠD": 1172,
      "æĪ´": 1173,
      "åıį": 1174,
      "åħ´": 1175,
      "ä¼¤": 1176,
      "é¡º": 1177,
      "æļĹ": 1178,
      "èĢ³": 1179,
      "åĮĸ": 1180,
      "åłĤ": 1181,
      "å®¹": 1182,
      "è´¾æĶ¿": 1183,
      "ç®Ń": 1184,
      "ç¦»": 1185,
      "æĻº": 1186,
      "é¡¾": 1187,
      "ç©¿": 1188,
      "éªĤ": 1189,
      "èĮ¶": 1190,
      "æĸ°": 1191,
      "æĸĹ": 1192,
      "us": 1193,
      "è¯´çĿĢ": 1194,
      "èĢģçĪ·": 1195,
      "Ġse": 1196,
      "US": 1197,
      "ç³": 1198,
      "if": 1199,
      "éĥ½æĺ¯": 1200,
      "éĶĭ": 1201,
      "çŀ§": 1202,
      "æ°ı": 1203,
      "æµģ": 1204,
      "æŃĩ": 1205,
      "ä¾į": 1206,
      "çŁ¥éģĵ": 1207,
      "çĲı": 1208,
      "Ġ'": 1209,
      "åĳ¼": 1210,
      "å¥¶å¥¶": 1211,
      "ge": 1212,
      "èĦ¸": 1213,
      "ä¸Ģå£°": 1214,
      "åı¥": 1215,
      "äº¬": 1216,
      "è¶³": 1217,
      "åıĶ": 1218,
      "ç½Ĺ": 1219,
      "æĪĸ": 1220,
      "æįī": 1221,
      "çĩ": 1222,
      "éĹ®éģĵ": 1223,
      "å²Ĥ": 1224,
      "Ġall": 1225,
      "éĨ": 1226,
      "çļĩ": 1227,
      "åĽŃ": 1228,
      "èľĢ": 1229,
      "èı©": 1230,
      "and": 1231,
      "ĠTh": 1232,
      "èĳĹ": 1233,
      "éĽ¨": 1234,
      "ä¸įæĽ¾": 1235,
      "Ġsu": 1236,
      "åĻ": 1237,
      "åĽŀæĿ¥": 1238,
      "åı²": 1239,
      "ä¹Ĳ": 1240,
      "èĲ¨": 1241,
      "æ²¡æľī": 1242,
      "ake": 1243,
      "äºĮåįģ": 1244,
      "ĠTo": 1245,
      "èı©èĲ¨": 1246,
      "èµµ": 1247,
      "å¾Ĳ": 1248,
      "Ġher": 1249,
      "éĽĦ": 1250,
      "çıį": 1251,
      "æ²Ļåĥ§": 1252,
      "åıĮ": 1253,
      "éĻ¢": 1254,
      "è¸": 1255,
      "æĭĽ": 1256,
      "çĽ®": 1257,
      "ru": 1258,
      "éĹ¹": 1259,
      "å°±æĺ¯": 1260,
      "ion": 1261,
      "åı·": 1262,
      "æĹ§": 1263,
      "ä¸īä¸ª": 1264,
      "è¯Ĺ": 1265,
      "åĬĿ": 1266,
      "éķ¿èĢģ": 1267,
      "éªĳ": 1268,
      "Ġan": 1269,
      "åĨĻ": 1270,
      "æĤŁ": 1271,
      "èĵ": 1272,
      "ĠK": 1273,
      "ä¹ħ": 1274,
      "Ġåį´è¯´": 1275,
      "ç«¥": 1276,
      "èĲ¥": 1277,
      "è¯ī": 1278,
      "å¸Ĳ": 1279,
      "èį£": 1280,
      "Ġlo": 1281,
      "ter": 1282,
      "ard": 1283,
      "çĩķ": 1284,
      "ç¥ĸ": 1285,
      "ç´§": 1286,
      "åĵ©": 1287,
      "çĶļä¹Ī": 1288,
      "å¢": 1289,
      "åĲķ": 1290,
      "æĪĳçļĦ": 1291,
      "èµı": 1292,
      "han": 1293,
      "Ġsp": 1294,
      "åŃ¦": 1295,
      "ä¿±": 1296,
      "çģ¯": 1297,
      "éĥ¨": 1298,
      "è®©": 1299,
      "åį¢": 1300,
      "åºĨ": 1301,
      "ç´«": 1302,
      "å¼º": 1303,
      "ell": 1304,
      "å°ģ": 1305,
      "å¼Ħ": 1306,
      "æ¬¡æĹ¥": 1307,
      "çĵ": 1308,
      "è´¾çĲı": 1309,
      "æĿĳ": 1310,
      "æ´»": 1311,
      "æ¨ª": 1312,
      "ear": 1313,
      "å¤§åĸľ": 1314,
      "Ġthee": 1315,
      "ç§°": 1316,
      "ä¸ľè¥¿": 1317,
      "èį¯": 1318,
      "é²ģ": 1319,
      "ä¸¾": 1320,
      "è¯¥": 1321,
      "è¿½": 1322,
      "è¿ĽæĿ¥": 1323,
      "è·³": 1324,
      "ä¸İä»ĸ": 1325,
      "å±ĭ": 1326,
      "Ġfa": 1327,
      "Ġshall": 1328,
      "è¡¨": 1329,
      "Ġour": 1330,
      "æİ¨": 1331,
      "Ġby": 1332,
      "è±¡": 1333,
      "é¥®": 1334,
      "æ¥¼": 1335,
      "éģĩ": 1336,
      "èĶ": 1337,
      "th": 1338,
      "åĳĨ": 1339,
      "é¼ĵ": 1340,
      "æ¯ı": 1341,
      "æŁ´": 1342,
      "çĸĳ": 1343,
      "æ²³": 1344,
      "é»ĳ": 1345,
      "è¿Ļä¸Ģ": 1346,
      "ä¸įå¥½": 1347,
      "æģ¯": 1348,
      "æłĳ": 1349,
      "åĮħ": 1350,
      "æľ¨": 1351,
      "æ¬¢": 1352,
      "æĶ»": 1353,
      "èĦ±": 1354,
      "æĸŃ": 1355,
      "åķĨè®®": 1356,
      "ç²®": 1357,
      "å¯Ĩ": 1358,
      "è¾ŀ": 1359,
      "æŀĹåĨ²": 1360,
      "åĸĦ": 1361,
      "UC": 1362,
      "åĵį": 1363,
      "åĲ¬è§ģ": 1364,
      "ĠéĤ£": 1365,
      "æİĴ": 1366,
      "çİ°": 1367,
      "ãĢĤ\"": 1368,
      "æ°ĳ": 1369,
      "ä¸įè¿ĩ": 1370,
      "éĤ£ä¸ª": 1371,
      "åĩºåİ»": 1372,
      "Ġare": 1373,
      "ç»ĵ": 1374,
      "çŃĸ": 1375,
      "éŀ": 1376,
      "åı«éģĵ": 1377,
      "èĭ±": 1378,
      "åĽłæŃ¤": 1379,
      "ä¸ŀ": 1380,
      "il": 1381,
      "æ¼": 1382,
      "å®ģ": 1383,
      "åħĥ": 1384,
      "æĹ¨": 1385,
      "å¾Į": 1386,
      "å®¶çļĦ": 1387,
      "é£Ł": 1388,
      "å¤´é¢Ĩ": 1389,
      "æ³ª": 1390,
      "åĲ´çĶ¨": 1391,
      "ç¿»": 1392,
      "ING": 1393,
      "çĶ²": 1394,
      "Ġne": 1395,
      "çī¹": 1396,
      "çºµ": 1397,
      "åĲĥäºĨ": 1398,
      "ç»Ł": 1399,
      "çĮ´": 1400,
      "é©¾": 1401,
      "çīĽ": 1402,
      "çĥ§": 1403,
      "åı¤": 1404,
      "Ġkn": 1405,
      "æŁĲ": 1406,
      "rom": 1407,
      "ç´ł": 1408,
      "éĹ²": 1409,
      "ä¾¿æĺ¯": 1410,
      "åĩłä¸ª": 1411,
      "å¿ĥä¸Ń": 1412,
      "å¥Ī": 1413,
      "éĽ·": 1414,
      "äººé©¬": 1415,
      "èĤī": 1416,
      "ho": 1417,
      "æĸ½": 1418,
      "çľĭæĹ¶": 1419,
      "åħĪéĶĭ": 1420,
      "å¹³åĦ¿": 1421,
      "æĴŀ": 1422,
      "åľ¨æŃ¤": 1423,
      "æĸ©": 1424,
      "è®¾": 1425,
      "é¬¼": 1426,
      "è¿Ļæł·": 1427,
      "åīĳ": 1428,
      "Ġv": 1429,
      "è¿ĩæĿ¥": 1430,
      "èŁ": 1431,
      "ä¸įè§ģ": 1432,
      "ä¸ĢæĹ¶": 1433,
      "å¤ªå°ī": 1434,
      "å¾¡": 1435,
      "éĢł": 1436,
      "ĠThat": 1437,
      "ç®Ĺ": 1438,
      "æĬ¤": 1439,
      "ä¸Ģé½Ĳ": 1440,
      "ä¹°": 1441,
      "éģ£": 1442,
      "ä¸Ī": 1443,
      "åĺ´": 1444,
      "ER": 1445,
      "OR": 1446,
      "ast": 1447,
      "æĿ¥çļĦ": 1448,
      "åĽ´": 1449,
      "çħ§": 1450,
      "ct": 1451,
      "äºĨä»ĸ": 1452,
      "ous": 1453,
      "ĠâĢľ": 1454,
      "Ġwhat": 1455,
      "èĬĤ": 1456,
      "Ġsh": 1457,
      "çĽĺ": 1458,
      "ç«¯": 1459,
      "ç§¦": 1460,
      "åºķ": 1461,
      "èĽ": 1462,
      "åľº": 1463,
      "è´¤": 1464,
      "çĨ": 1465,
      "å¹¸": 1466,
      "ä¹ĺ": 1467,
      "åľ¨éĤ£éĩĮ": 1468,
      "åĻ¨": 1469,
      "ä¸ŀçĽ¸": 1470,
      "å¨ģ": 1471,
      "åı¹": 1472,
      "æĮĤ": 1473,
      "å¦ĸç²¾": 1474,
      "ight": 1475,
      "åº§": 1476,
      "å§¥": 1477,
      "æ³Ĭ": 1478,
      "å¤ı": 1479,
      "ç´¢": 1480,
      "æĭ¨": 1481,
      "åĳĬè¯ī": 1482,
      "åºĹ": 1483,
      "ul": 1484,
      "ä½łè¿Ļ": 1485,
      "å¯º": 1486,
      "åĸĬ": 1487,
      "è¯Ĩ": 1488,
      "ET": 1489,
      "ä¹Łæĺ¯": 1490,
      "ant": 1491,
      "æĳĨ": 1492,
      "è´µ": 1493,
      "æīĢä»¥": 1494,
      "å«Ĥ": 1495,
      "å°ıäºº": 1496,
      "ç§Ģ": 1497,
      "èĻļ": 1498,
      "Ġup": 1499,
      "ä¸įè¦ģ": 1500,
      "è°ĥ": 1501,
      "éĵ¶åŃĲ": 1502,
      "å¤§çİĭ": 1503,
      "åħ»": 1504,
      "èĢģåŃĻ": 1505,
      "åħ±": 1506,
      "æĻºæ·±": 1507,
      "âĢĶ": 1508,
      "Ġgood": 1509,
      "sel": 1510,
      "å·¦åı³": 1511,
      "æĩ¿": 1512,
      "æĵĴ": 1513,
      "qu": 1514,
      "è°ĭ": 1515,
      "åģĩ": 1516,
      "çķª": 1517,
      "èī¯": 1518,
      "ĠBut": 1519,
      "æĳĩ": 1520,
      "åĬ©": 1521,
      "çľĭè§ģ": 1522,
      "ä¸įä½ı": 1523,
      "art": 1524,
      "éĥİ": 1525,
      "è®¨": 1526,
      "éĽª": 1527,
      "èįĨ": 1528,
      "åĴ±": 1529,
      "æģ¨": 1530,
      "èĴĻ": 1531,
      "äººå®¶": 1532,
      "èĳ£": 1533,
      "æĿ¯": 1534,
      "èĥ¡": 1535,
      "å¤º": 1536,
      "æī§": 1537,
      "è¶Ĭ": 1538,
      "ç»´": 1539,
      "æĪ´å®Ĺ": 1540,
      "åĨ·": 1541,
      "åľ¨è¿ĻéĩĮ": 1542,
      "row": 1543,
      "æº": 1544,
      "ä¸Ķè¯´": 1545,
      "æĬĺ": 1546,
      "ine": 1547,
      "Ġcom": 1548,
      "ath": 1549,
      "çĪ±": 1550,
      "è¢ģ": 1551,
      "èĪį": 1552,
      "Ġmu": 1553,
      "éĺ´": 1554,
      "Ġlord": 1555,
      "å¡": 1556,
      "å¿Ĺ": 1557,
      "hich": 1558,
      "nt": 1559,
      "è§Ĩ": 1560,
      "Ġpr": 1561,
      "æ¹ĺ": 1562,
      "åħ«æĪĴéģĵ": 1563,
      "Ġman": 1564,
      "åĴ±ä»¬": 1565,
      "æ½": 1566,
      "è¯´äºĨ": 1567,
      "å§Ĳå§Ĳ": 1568,
      "'ll": 1569,
      "Ġat": 1570,
      "æĤĦ": 1571,
      "åı¸é©¬": 1572,
      "æķ´": 1573,
      "å¸Ń": 1574,
      "æĭ¾": 1575,
      "çĽĳ": 1576,
      "åĨĽå£«": 1577,
      "ĠV": 1578,
      "å®Į": 1579,
      "æŃ¢": 1580,
      "ï¼İ\"": 1581,
      "ä»»": 1582,
      "æľīäºĽ": 1583,
      "one": 1584,
      "æľīäºº": 1585,
      "åįĸ": 1586,
      "è¶ħ": 1587,
      "è¿ĻäºĽ": 1588,
      "å²¸": 1589,
      "Ġwhe": 1590,
      "çĮ®": 1591,
      "çĳľ": 1592,
      "è§ģä»ĸ": 1593,
      "Ġcon": 1594,
      "åĮ¹": 1595,
      "åİħ": 1596,
      "å±ħ": 1597,
      "çļ®": 1598,
      "å¤§æĢĴ": 1599,
      "éĶ¦": 1600,
      "ä¹İ": 1601,
      "åĪ©": 1602,
      "è¯´è¯Ŀ": 1603,
      "æ¢ģå±±": 1604,
      "éģį": 1605,
      "ĠWhat": 1606,
      "éĥ¡": 1607,
      "ä»ĺ": 1608,
      "è§Ĵ": 1609,
      "æĽ¿": 1610,
      "æł¹": 1611,
      "æ¶Ī": 1612,
      "åģı": 1613,
      "äº®": 1614,
      "å®¿": 1615,
      "Ġam": 1616,
      "æĸĻ": 1617,
      "æĮī": 1618,
      "å¼ķåħµ": 1619,
      "ä»ģ": 1620,
      "åĩĢ": 1621,
      "end": 1622,
      "åŀ": 1623,
      "å¤§å®¶": 1624,
      "éĺŁ": 1625,
      "æĺ¨": 1626,
      "åįİ": 1627,
      "æ®µ": 1628,
      "ic": 1629,
      "åı°": 1630,
      "æĻ¯": 1631,
      "ç±": 1632,
      "å¤©ä¸ĭ": 1633,
      "ES": 1634,
      "çľĭäºĨ": 1635,
      "ble": 1636,
      "æĢ§åĳ½": 1637,
      "ä¿Ĭä¹ī": 1638,
      "èµ·èº«": 1639,
      "ä½ĵ": 1640,
      "æħ¢": 1641,
      "ry": 1642,
      "çķ¥": 1643,
      "æī¶": 1644,
      "åį¢ä¿Ĭä¹ī": 1645,
      "åŃ©": 1646,
      "éĢĥ": 1647,
      "å²ģ": 1648,
      "çĥŁ": 1649,
      "èµĲ": 1650,
      "èģļ": 1651,
      "è¾¾": 1652,
      "æŀľçĦ¶": 1653,
      "æī¾": 1654,
      "å¦Ļ": 1655,
      "ä¿®": 1656,
      "ç§ĭ": 1657,
      "çĭ¬": 1658,
      "å©ĨåŃĲ": 1659,
      "æĪĳçŃī": 1660,
      "Ġfrom": 1661,
      "ong": 1662,
      "æ¢ģå±±æ³Ĭ": 1663,
      "ie": 1664,
      "åį´æĺ¯": 1665,
      "ä¸įèĤ¯": 1666,
      "Ġshe": 1667,
      "çº¦": 1668,
      "å¤§æĥĬ": 1669,
      "èħ°": 1670,
      "çļĦæĺ¯": 1671,
      "åĬ³": 1672,
      "Ġbl": 1673,
      "è®¤å¾Ĺ": 1674,
      "ç»į": 1675,
      "ive": 1676,
      "éĩı": 1677,
      "çļĦäºĭ": 1678,
      "å½¼": 1679,
      "è°ĵ": 1680,
      "å¦ĩäºº": 1681,
      "å§¨å¦Ī": 1682,
      "ven": 1683,
      "æ¦": 1684,
      "å°¤": 1685,
      "ä¹ĭäºĭ": 1686,
      "ä¸īåįģ": 1687,
      "æ¯Ľ": 1688,
      "ä¸İæĪĳ": 1689,
      "åħ³åħ¬": 1690,
      "æ¡¥": 1691,
      "çĥ¦": 1692,
      "éģŃ": 1693,
      "Ġgo": 1694,
      "æŀģ": 1695,
      "å°Ħ": 1696,
      "æĬ¬": 1697,
      "Ġmore": 1698,
      "ĠFor": 1699,
      "ç¦ģ": 1700,
      "æľīä¸ª": 1701,
      "æĸĭ": 1702,
      "Ġthem": 1703,
      "å½©": 1704,
      "em": 1705,
      "åĪļ": 1706,
      "éĩĮéĿ¢": 1707,
      "æĦŁ": 1708,
      "æĤŁç©º": 1709,
      "è®º": 1710,
      "å¦»": 1711,
      "æĮģ": 1712,
      "èµ°äºĨ": 1713,
      "éŁ³": 1714,
      "Ġwas": 1715,
      "çīĮ": 1716,
      "IC": 1717,
      "åĪĿ": 1718,
      "out": 1719,
      "ä¸İä½ł": 1720,
      "çĻ»": 1721,
      "ä¸įåľ¨": 1722,
      "è·ĳ": 1723,
      "å´": 1724,
      "åįķ": 1725,
      "åĽ¾": 1726,
      "ä»ĸçļĦ": 1727,
      "åŃĿ": 1728,
      "æīĺ": 1729,
      "è¿ĻèĪ¬": 1730,
      "äºī": 1731,
      "åıĤ": 1732,
      "éĻ¤": 1733,
      "æĻģ": 1734,
      "au": 1735,
      "éĿĻ": 1736,
      "è®¸å¤ļ": 1737,
      "ä¸ĢæĹ¥": 1738,
      "åĩ¡": 1739,
      "Ġsir": 1740,
      "æī¯": 1741,
      "other": 1742,
      "are": 1743,
      "å°Ĭ": 1744,
      "è¿Ľåİ»": 1745,
      "çĳŀ": 1746,
      "çĩķéĿĴ": 1747,
      "æĪĳä¹Ł": 1748,
      "oth": 1749,
      "ol": 1750,
      "Ġif": 1751,
      "ä¸´": 1752,
      "ä¸ĭæĿ¥": 1753,
      "æĶ¶æĭ¾": 1754,
      "åĭĩ": 1755,
      "çľģ": 1756,
      "äºĮçĪ·": 1757,
      "å¤©åŃĲ": 1758,
      "å¿ĥéĩĮ": 1759,
      "Ġnow": 1760,
      "åŁİä¸Ń": 1761,
      "ĠHe": 1762,
      "è®°": 1763,
      "Ġhat": 1764,
      "åħį": 1765,
      "è¿Ł": 1766,
      "å¥ĩ": 1767,
      "å¼ĵ": 1768,
      "ç½¢äºĨ": 1769,
      "å°ĨæĿ¥": 1770,
      "Ġthere": 1771,
      "é¡¶": 1772,
      "çıŃ": 1773,
      "âĢĻ": 1774,
      "Ġwould": 1775,
      "çİ¯": 1776,
      "æŃ¤æĹ¶": 1777,
      "æį¢": 1778,
      "éĹ»è¨Ģ": 1779,
      "AN": 1780,
      "ç¦ı": 1781,
      "ç£": 1782,
      "çĬ¯": 1783,
      "ç¨ĭ": 1784,
      "ost": 1785,
      "åĽ½çİĭ": 1786,
      "æĿ¥åĪ°": 1787,
      "æī¿": 1788,
      "å¯¿": 1789,
      "æ²»": 1790,
      "Ġknow": 1791,
      "ç»Ŀ": 1792,
      "Ġcan": 1793,
      "LO": 1794,
      "æĺİæĹ¥": 1795,
      "æĸ¹æīį": 1796,
      "ind": 1797,
      "éĻª": 1798,
      "ä¸Ģäºº": 1799,
      "æĥľ": 1800,
      "æ¢¦": 1801,
      "âĢĺ": 1802,
      "åħĪçĶŁ": 1803,
      "èĶ¡": 1804,
      "è¡Ģ": 1805,
      "åĶ¬": 1806,
      "ç»Ī": 1807,
      "æµİ": 1808,
      "é¸¯": 1809,
      "ç°": 1810,
      "çĶ»": 1811,
      "çĽĽ": 1812,
      "ers": 1813,
      "å¾Ĵå¼Ł": 1814,
      "Ġç¬¬": 1815,
      "æĢĢ": 1816,
      "IUS": 1817,
      "æĺŃ": 1818,
      "æĢ»": 1819,
      "åĢŁ": 1820,
      "ep": 1821,
      "å®´": 1822,
      "åĬł": 1823,
      "åĽŀåİ»": 1824,
      "æĹģ": 1825,
      "é¡¿": 1826,
      "self": 1827,
      "å³": 1828,
      "ä¸įå¦Ĥ": 1829,
      "ä¸ĬæĿ¥": 1830,
      "æĬ¢": 1831,
      "Ġsay": 1832,
      "ARD": 1833,
      "ĠKING": 1834,
      "åĹ": 1835,
      "Ľä¸ĭ": 1836,
      "ather": 1837,
      "åıªç®¡": 1838,
      "åº¦": 1839,
      "åĢĺ": 1840,
      "ond": 1841,
      "äºİæĺ¯": 1842,
      "é¸³": 1843,
      "res": 1844,
      "ate": 1845,
      "åķĬ": 1846,
      "fe": 1847,
      "å¿į": 1848,
      "å¼ĥ": 1849,
      "Ġsw": 1850,
      "æĮĳ": 1851,
      "Ġhere": 1852,
      "èİ·": 1853,
      "Ġlove": 1854,
      "ä¼Ĺå°Ĩ": 1855,
      "åª": 1856,
      "Ġtheir": 1857,
      "éĤ£äºĽ": 1858,
      "éĥŃ": 1859,
      "æĻĵ": 1860,
      "æ¸Ĳ": 1861,
      "ä¸īèĹıéģĵ": 1862,
      "æķ¬": 1863,
      "å±¯": 1864,
      "åĪ°äºĨ": 1865,
      "å¥½æ±ī": 1866,
      "è¾½": 1867,
      "ãĢĬ": 1868,
      "çļĦè¯Ŀ": 1869,
      "èĭ¥æĺ¯": 1870,
      "å®Ŀçİīéģĵ": 1871,
      "çŃĶåºĶ": 1872,
      "åĪĩ": 1873,
      "èĩ´": 1874,
      "èĸĽå§¨å¦Ī": 1875,
      "Ġor": 1876,
      "Ġthan": 1877,
      "ĠMy": 1878,
      "å¼Ĥ": 1879,
      "æĬ«": 1880,
      "è´Ł": 1881,
      "Ġbr": 1882,
      "åĩ¤å§ĲåĦ¿": 1883,
      "pp": 1884,
      "äºŃ": 1885,
      "åĽĽä¸ª": 1886,
      "æ··": 1887,
      "åĳĨåŃĲ": 1888,
      "å®£": 1889,
      "éŁ©": 1890,
      "ãĢĭ": 1891,
      "å¾ģ": 1892,
      "çŃīæĪĳ": 1893,
      "äºĳéķ¿": 1894,
      "é¸³é¸¯": 1895,
      "--": 1896,
      "éĤĵ": 1897,
      "èĤĥ": 1898,
      "Ġthey": 1899,
      "è·ª": 1900,
      "å®ĭæ±Łéģĵ": 1901,
      "Ġus": 1902,
      "Ġking": 1903,
      "ç¢Ĺ": 1904,
      "ä¸ĢèĪ¬": 1905,
      "Ġthen": 1906,
      "è£ħ": 1907,
      "ç»£": 1908,
      "åģ·": 1909,
      "èĢ¶": 1910,
      "å¿ĺ": 1911,
      "åĬŀ": 1912,
      "ä¸¢": 1913,
      "è¯ı": 1914,
      "ä¸ĭé©¬": 1915,
      "èº«ä¸Ĭ": 1916,
      "éĤ£æĢª": 1917,
      "çĶ°": 1918,
      "å·§": 1919,
      "åĿļ": 1920,
      "æŁ³": 1921,
      "è¿Ļæĺ¯": 1922,
      "æĭĶ": 1923,
      "å»·": 1924,
      "éķĩ": 1925,
      "all": 1926,
      "äººæĿ¥": 1927,
      "åĩĨ": 1928,
      "Ġar": 1929,
      "éĻĽä¸ĭ": 1930,
      "çĮĽ": 1931,
      "åĸĿéģĵ": 1932,
      "å¾®": 1933,
      "å£ģ": 1934,
      "ç¦ħ": 1935,
      "çıł": 1936,
      "æ±¤": 1937,
      "åįģåĪĨ": 1938,
      "æīĩ": 1939,
      "åı«ä»ĸ": 1940,
      "æĬ¼": 1941,
      "æģ¶": 1942,
      "çĸ¼": 1943,
      "åŃŁ": 1944,
      "ä½łçļĦ": 1945,
      "od": 1946,
      "ç¯": 1947,
      "ä»į": 1948,
      "åĨ³": 1949,
      "çķĮ": 1950,
      "æİ¢æĺ¥": 1951,
      "æĮº": 1952,
      "æľĢ": 1953,
      "æŀĿ": 1954,
      "åīįéĿ¢": 1955,
      "åĲ¬è¯´": 1956,
      "Ġlet": 1957,
      "å¤ļå°ĳ": 1958,
      "éĤ¢": 1959,
      "åºĻ": 1960,
      "éª¨": 1961,
      "éĩİ": 1962,
      "æĢ¨": 1963,
      "Ġun": 1964,
      "é¹ĥ": 1965,
      "ä¼Ļ": 1966,
      "æĭħ": 1967,
      "è¨Ģè¯Ń": 1968,
      "ä¿º": 1969,
      "åĪĨè§£": 1970,
      "è¹": 1971,
      "æģ¼": 1972,
      "é¢ľ": 1973,
      "èįĨå·ŀ": 1974,
      "åĨµ": 1975,
      "çĶ±": 1976,
      "æĻ´": 1977,
      "ç¾İ": 1978,
      "ä¸¹": 1979,
      "åīįæĿ¥": 1980,
      "éħį": 1981,
      "çĮª": 1982,
      "çĥŃ": 1983,
      "ç´«é¹ĥ": 1984,
      "åĴĲ": 1985,
      "æŃ»äºĨ": 1986,
      "åĪĹ": 1987,
      "åºĬ": 1988,
      "å®¶éĩĮ": 1989,
      "ãĢĢ": 1990,
      "åį·": 1991,
      "æİĮ": 1992,
      "å®ľ": 1993,
      "é¡½": 1994,
      "è¡£æľį": 1995,
      "æĭī": 1996,
      "ä¹ĥæĺ¯": 1997,
      "ig": 1998,
      "èĿ": 1999,
      "åı¶": 2000,
      "çĶ·": 2001,
      "Ġwor": 2002,
      "åļ": 2003,
      "ç«Ļ": 2004,
      "ä¸Ĭé©¬": 2005,
      "éĢĴ": 2006,
      "è¿ĩåİ»": 2007,
      "æĭ¿äºĨ": 2008,
      "è¿ĻçŃī": 2009,
      "å²Ń": 2010,
      "ä½İ": 2011,
      "åĪº": 2012,
      "èĳĽ": 2013,
      "ç¾¤": 2014,
      "ure": 2015,
      "ä¹¡": 2016,
      "çī¢": 2017,
      "èĬ±èį£": 2018,
      "åĥ": 2019,
      "çłį": 2020,
      "ink": 2021,
      "é±": 2022,
      "ä¸ĢæĿ¡": 2023,
      "çīĻ": 2024,
      "ç¼ĺ": 2025,
      "è¿ŀå¿Ļ": 2026,
      "èĥĨ": 2027,
      "è¿ĺæľī": 2028,
      "èĢĮåİ»": 2029,
      "æ»ļ": 2030,
      "åŃ¤": 2031,
      "èµ´": 2032,
      "è¿Ļä¹Ī": 2033,
      "Ġmay": 2034,
      "è½®": 2035,
      "æ´Ĺ": 2036,
      "æĺı": 2037,
      "å¿§": 2038,
      "éĤ£è¾¹": 2039,
      "é¢ĺ": 2040,
      "hy": 2041,
      "èĨ": 2042,
      "çĿ£": 2043,
      "ä¹Łæľī": 2044,
      "æ±ł": 2045,
      "Ġcome": 2046,
      "åħ¬åŃĻ": 2047,
      "èĬ³": 2048,
      "äºĶçĻ¾": 2049,
      "å¦¹å¦¹": 2050,
      "ame": 2051,
      "é±¼": 2052,
      "fore": 2053,
      "æĺ¯æĪĳ": 2054,
      "å·Ŀ": 2055,
      "ort": 2056,
      "éĹ¨å¤ĸ": 2057,
      "ĠAs": 2058,
      "å¤ıä¾¯": 2059,
      "æ¹ĺäºĳ": 2060,
      "Ġqu": 2061,
      "æĻģçĽĸ": 2062,
      "é¥¶": 2063,
      "èľĢåħµ": 2064,
      "æľº": 2065,
      "çģ¼": 2066,
      "ä»Ĺ": 2067,
      "è¡Ĺ": 2068,
      "ä¾¿éģĵ": 2069,
      "è®²": 2070,
      "ä¸īäºº": 2071,
      "ook": 2072,
      "ä¸Ģå¤Ħ": 2073,
      "è¯¯": 2074,
      "è¿Ļè¯Ŀ": 2075,
      "éĴŁ": 2076,
      "äºĶåįģ": 2077,
      "æĶ¾å¿ĥ": 2078,
      "Ġwell": 2079,
      "el": 2080,
      "ish": 2081,
      "å®ĺäºº": 2082,
      "éĹ·": 2083,
      "åĬ«": 2084,
      "çľŁä¸ª": 2085,
      "LI": 2086,
      "ä¸»åħ¬": 2087,
      "ĠWhe": 2088,
      "æ¡Į": 2089,
      "ç³»": 2090,
      "æŁ´è¿Ľ": 2091,
      "æĬ±": 2092,
      "è´¯": 2093,
      "åıªæľī": 2094,
      "è´¾çıį": 2095,
      "æĿİçº": 2096,
      "å¥Īä½ķ": 2097,
      "èĩªçĦ¶": 2098,
      "èĪħ": 2099,
      "æ¸¡": 2100,
      "éĶĻ": 2101,
      "Ġj": 2102,
      "çĹĽ": 2103,
      "æĪ¿éĩĮ": 2104,
      "åŃĶæĺİæĽ°": 2105,
      "KE": 2106,
      "çŁ³ç§Ģ": 2107,
      "äº¡": 2108,
      "åĿĹ": 2109,
      "ves": 2110,
      "åįĩ": 2111,
      "ãĢį": 2112,
      "æĿĸ": 2113,
      "Ġone": 2114,
      "ãĢĮ": 2115,
      "éļĲ": 2116,
      "çİĦå¾·æĽ°": 2117,
      "Ġhath": 2118,
      "è²": 2119,
      "ä¸įå¿ħ": 2120,
      "éĺ®": 2121,
      "çº³": 2122,
      "è¿ĩäºĨ": 2123,
      "å¯Ĵ": 2124,
      "æ³¼": 2125,
      "åĪ»": 2126,
      "åĩ¶": 2127,
      "åıĪæľī": 2128,
      "åĪ°æŃ¤": 2129,
      "èŁł": 2130,
      "æĪ·": 2131,
      "å½ĵä¸ĭ": 2132,
      "irst": 2133,
      "æĺĵ": 2134,
      "éŃĤ": 2135,
      "è¿ģ": 2136,
      "æĭ¦": 2137,
      "è¤": 2138,
      "å¾ĹäºĨ": 2139,
      "Ġmake": 2140,
      "åĲķå¸ĥ": 2141,
      "è¯´çļĦ": 2142,
      "æĢľ": 2143,
      "åģľ": 2144,
      "å¼łé£ŀ": 2145,
      "ĠYou": 2146,
      "è¢į": 2147,
      "åĭ¿": 2148,
      "æĸ§": 2149,
      "åī¯": 2150,
      "åı¯ä»¥": 2151,
      "æĤ²": 2152,
      "æĪı": 2153,
      "èĪŀ": 2154,
      "ĉĉ": 2155,
      "ĠĠĠĠ": 2156,
      "éĤ£äºº": 2157,
      "å½¢": 2158,
      "Ġgra": 2159,
      "éĨĴ": 2160,
      "ĉĉĊ": 2161,
      "ĠĠĠĠĉĉĊ": 2162,
      "reat": 2163,
      "å½ĵæĹ¥": 2164,
      "ak": 2165,
      "ng": 2166,
      "äºı": 2167,
      "çĤ®": 2168,
      "Ġmust": 2169,
      "æĿİçº¨": 2170,
      "gain": 2171,
      "æīİ": 2172,
      "çľĭçľĭ": 2173,
      "ä¸įæĪĲ": 2174,
      "ound": 2175,
      "åıªåĲ¬å¾Ĺ": 2176,
      "çĦ¶åĲİ": 2177,
      "æĲŃ": 2178,
      "åĭĴ": 2179,
      "ä¸Ĭåīį": 2180,
      "çŁŃ": 2181,
      "åįĵ": 2182,
      "åıĪæĺ¯": 2183,
      "çº¸": 2184,
      "åĩºåŁİ": 2185,
      "æĥ§": 2186,
      "åĮ»": 2187,
      "æĭ¥": 2188,
      "å°ıå¦ĸ": 2189,
      "çİĭåºĨ": 2190,
      "æŃ£åľ¨": 2191,
      "Ġwere": 2192,
      "ä¸įçĶ¨": 2193,
      "æĥŁ": 2194,
      "å¤§å°ı": 2195,
      "æ·»": 2196,
      "èĥĮåĲİ": 2197,
      "äºĨæĪĳ": 2198,
      "ä¾Ľ": 2199,
      "Ġho": 2200,
      "è¯¸èĳĽ": 2201,
      "çĬ¹": 2202,
      "æĿ¨å¿Ĺ": 2203,
      "éĨī": 2204,
      "çĴ": 2205,
      "é¡¹": 2206,
      "Ġsee": 2207,
      "Ġshould": 2208,
      "ä¸ĵ": 2209,
      "åıĪè§ģ": 2210,
      "éĺ²": 2211,
      "ä¼ļåŃĲ": 2212,
      "ç¿ł": 2213,
      "Ġlike": 2214,
      "çĨŁ": 2215,
      "æ¤": 2216,
      "ä»ĩ": 2217,
      "åĲ©": 2218,
      "è´Ŀ": 2219,
      "ç¼ļ": 2220,
      "ci": 2221,
      "Ġä¸Ķè¯´": 2222,
      "æĶ¯": 2223,
      "çģŃ": 2224,
      "Ġpro": 2225,
      "åª³": 2226,
      "æľķ": 2227,
      "æİ©": 2228,
      "éĺģ": 2229,
      "å¼ŁåħĦ": 2230,
      "èħ¾": 2231,
      "å±ĭéĩĮ": 2232,
      "ue": 2233,
      "åĲ¹": 2234,
      "é¸Ł": 2235,
      "æ£į": 2236,
      "åĲ©åĴĲ": 2237,
      "æħĪ": 2238,
      "æ¡ĥ": 2239,
      "åħ¥åŁİ": 2240,
      "åħĦéķ¿": 2241,
      "eak": 2242,
      "TIO": 2243,
      "è´º": 2244,
      "Ġsa": 2245,
      "èµ¤": 2246,
      "éĹª": 2247,
      "ä¹ĭäºº": 2248,
      "å¹¿": 2249,
      "ity": 2250,
      "éĽ¯": 2251,
      "èĻ«": 2252,
      "å°¤æ°ı": 2253,
      "æĻ´éĽ¯": 2254,
      "ä¸ļ": 2255,
      "Ġmad": 2256,
      "éĻĨ": 2257,
      "Ġpl": 2258,
      "è¯Ŀè¯´": 2259,
      "å¸¦äºĨ": 2260,
      "å°ĺ": 2261,
      "èµ¦": 2262,
      "è°·": 2263,
      "Ġfather": 2264,
      "èº²": 2265,
      "ä½¿äºº": 2266,
      "å¥³åĦ¿": 2267,
      "ç«¹": 2268,
      "å¼ķåĨĽ": 2269,
      "æħĮå¿Ļ": 2270,
      "éģ¿": 2271,
      "ä¸Ĭå±±": 2272,
      "æĶ¹": 2273,
      "Ġhad": 2274,
      "å¿½è§ģ": 2275,
      "åĲĬ": 2276,
      "åİ»ç½¢": 2277,
      "éĵº": 2278,
      "æ¬¢åĸľ": 2279,
      "åį¿": 2280,
      "ä½łçľĭ": 2281,
      "å¥½äºĨ": 2282,
      "çºª": 2283,
      "ç¥Ń": 2284,
      "åĴĮä½ł": 2285,
      "ç§į": 2286,
      "ç¦Ģ": 2287,
      "å®īæİĴ": 2288,
      "um": 2289,
      "èµĸ": 2290,
      "å®Ŀè´Ŀ": 2291,
      "Ġdid": 2292,
      "èĢĮæĿ¥": 2293,
      "åĲĦèĩª": 2294,
      "éľ²": 2295,
      "åĳ¼å»¶": 2296,
      "Ġupon": 2297,
      "å¤ªåħ¬": 2298,
      "OM": 2299,
      "ä¸§": 2300,
      "å§ľ": 2301,
      "å½ĵæĹ¶": 2302,
      "é¢Ĩåħµ": 2303,
      "æľīä½ķ": 2304,
      "è´¹": 2305,
      "åıī": 2306,
      "åĽ¢": 2307,
      "éĹ®ä»ĸ": 2308,
      "å»º": 2309,
      "ime": 2310,
      "èī¾": 2311,
      "åĳ¼å»¶çģ¼": 2312,
      "å¸ħ": 2313,
      "æĺİçĻ½": 2314,
      "ä½ıäºĨ": 2315,
      "åª³å¦ĩ": 2316,
      "pe": 2317,
      "æ¬º": 2318,
      "èį¡": 2319,
      "è¯¸å°Ĩ": 2320,
      "æľŁ": 2321,
      "è¡Ļ": 2322,
      "éĴ»": 2323,
      "éŃıå»¶": 2324,
      "é²ģæĻºæ·±": 2325,
      "æīĳ": 2326,
      "Ġtoo": 2327,
      "åŃĻæĿĥ": 2328,
      "ice": 2329,
      "ä¸įè§ī": 2330,
      "èµŀ": 2331,
      "å¥´": 2332,
      "è´«": 2333,
      "å±±å¯¨": 2334,
      "è¶ģ": 2335,
      "å§¥å§¥": 2336,
      "ON": 2337,
      "ĠJ": 2338,
      "ï¼ļãĢĮ": 2339,
      "æīĵåıĳ": 2340,
      "æ¸¸": 2341,
      "èĵī": 2342,
      "å¬": 2343,
      "æĺ¾": 2344,
      "å½±": 2345,
      "éĴ¯": 2346,
      "æľĿå»·": 2347,
      "ä¹Į": 2348,
      "éĽ¾": 2349,
      "åĿ¡": 2350,
      "æĵįæĽ°": 2351,
      "åıªè¯´": 2352,
      "åĵĦ": 2353,
      "ç´¯": 2354,
      "åĪ«äºº": 2355,
      "ç§¦æĺİ": 2356,
      "ä¸¤è¾¹": 2357,
      "Ġdis": 2358,
      "åĿĲä¸ĭ": 2359,
      "ä¸ĢæĬĬ": 2360,
      "æĪĳè¯´": 2361,
      "ence": 2362,
      "ç¢İ": 2363,
      "éĤª": 2364,
      "å¤§äºĭ": 2365,
      "è´¢": 2366,
      "åıªæĢķ": 2367,
      "è¿ĺæĺ¯": 2368,
      "è¸ı": 2369,
      "åħģ": 2370,
      "æŀ¶": 2371,
      "åĢ¼": 2372,
      "åŁĭ": 2373,
      "çĽ¸è§ģ": 2374,
      "åĶ±": 2375,
      "å¤ĸå¤´": 2376,
      "å¿½çĦ¶": 2377,
      "Ġdeath": 2378,
      "èµµäºĳ": 2379,
      "ward": 2380,
      "å®½": 2381,
      "åĲī": 2382,
      "ä¸ĭåĽŀ": 2383,
      "ä¾¿èµ°": 2384,
      "èĭ¥ä¸į": 2385,
      "èĢĮèµ°": 2386,
      "æį§": 2387,
      "èħ¹": 2388,
      "æ¨¡": 2389,
      "åıªé¡¾": 2390,
      "ä¹ĭéĹ´": 2391,
      "Ġwhich": 2392,
      "å½ª": 2393,
      "é¸£": 2394,
      "âĢĶâĢĶ": 2395,
      "Ġen": 2396,
      "è¯ļ": 2397,
      "å¹¼": 2398,
      "çīĩ": 2399,
      "åĩī": 2400,
      "ä¼¯": 2401,
      "ĠIf": 2402,
      "ä¿Ĺ": 2403,
      "èĬ¦": 2404,
      "é©¬ä¸Ĭ": 2405,
      "éĻµ": 2406,
      "ç§ģ": 2407,
      "å¤ļæĹ¶": 2408,
      "åĽ°": 2409,
      "ä¸ĭå±±": 2410,
      "åĨĽå¸Ī": 2411,
      "ç¥¸": 2412,
      "æķĻä»ĸ": 2413,
      "ä¸įçŁ¥éģĵ": 2414,
      "ose": 2415,
      "æľ¯": 2416,
      "åİļ": 2417,
      "own": 2418,
      "å¼ĢäºĨ": 2419,
      "éŃıåħµ": 2420,
      "Ġspeak": 2421,
      "ä¸ĭåĽŀåĪĨè§£": 2422,
      "æĺ¯è°ģ": 2423,
      "å¤§å°Ĩ": 2424,
      "åºŀ": 2425,
      "Ġpo": 2426,
      "åĪĨä»ĺ": 2427,
      "åĿĲåľ¨": 2428,
      "Ġwhen": 2429,
      "åļ·": 2430,
      "ä¹¾": 2431,
      "å°¸": 2432,
      "éĺ¿": 2433,
      "æ´ª": 2434,
      "éĶģ": 2435,
      "éĤ£èĢģ": 2436,
      "çŃµ": 2437,
      "ç¬ĳæĽ°": 2438,
      "è·¯ä¸Ĭ": 2439,
      "ä¸ĶåĲ¬": 2440,
      "éľ¸": 2441,
      "ful": 2442,
      "Ġout": 2443,
      "ä¸ģ": 2444,
      "å°¾": 2445,
      "åĤ¬": 2446,
      "éģ®": 2447,
      "èĢį": 2448,
      "éĤ£æĹ¶": 2449,
      "Ġfri": 2450,
      "èµ¶æĿ¥": 2451,
      "èı±": 2452,
      "åĩ»": 2453,
      "å¤´ä¸Ĭ": 2454,
      "å§Ĭ": 2455,
      "å®¶äºº": 2456,
      "Ġhow": 2457,
      "çĲ¼": 2458,
      "entle": 2459,
      "å¬·": 2460,
      "io": 2461,
      "å·¾": 2462,
      "ç»¿": 2463,
      "éĢŁ": 2464,
      "åĵ¨": 2465,
      "æ²¹": 2466,
      "æ±ĿçŃī": 2467,
      "éªĤéģĵ": 2468,
      "pt": 2469,
      "un": 2470,
      "ä¸¥": 2471,
      "ä¹ĭåĲİ": 2472,
      "ä¹ĭè¨Ģ": 2473,
      "Ġagain": 2474,
      "åĩºä¸Ģ": 2475,
      "åİŁæĺ¯": 2476,
      "åĪĺå¤ĩ": 2477,
      "åĪĺå§¥å§¥": 2478,
      "ICH": 2479,
      "å¸ĺ": 2480,
      "çĽı": 2481,
      "åĽŀå¤´": 2482,
      "ĠRICH": 2483,
      "Ġtru": 2484,
      "æī¬": 2485,
      "å¯ĩ": 2486,
      "ä¸īåįĥ": 2487,
      "éĹ®æĽ°": 2488,
      "OL": 2489,
      "æĪĳæĺ¯": 2490,
      "è¾Ī": 2491,
      "äºĮå°Ĩ": 2492,
      "UKE": 2493,
      "de": 2494,
      "ä»£": 2495,
      "ä¾¿åı«": 2496,
      "å¯Į": 2497,
      "çīµ": 2498,
      "ĠDUKE": 2499,
      "åı¸é©¬æĩ¿": 2500,
      "man": 2501,
      "å°ıå¼Ł": 2502,
      "ä»ĬåĦ¿": 2503,
      "åı£éĩĮ": 2504,
      "åħ¬åŃĻèĥľ": 2505,
      "èķ": 2506,
      "éĤ£å¦ĩäºº": 2507,
      "æĹłäºº": 2508,
      "éĹ¨åīį": 2509,
      "äºĨä¸ĢåĽŀ": 2510,
      "çªĹ": 2511,
      "ä¸įæĥ³": 2512,
      "åĩŃ": 2513,
      "Ġheart": 2514,
      "å¼łé¡º": 2515,
      "ç¬¼": 2516,
      "åĿı": 2517,
      "Ġyet": 2518,
      "äº²èĩª": 2519,
      "åĲĳåīį": 2520,
      "ick": 2521,
      "åĪ¶": 2522,
      "ä½łæĺ¯": 2523,
      "ç»³": 2524,
      "è¾°": 2525,
      "å¤©çİĭ": 2526,
      "åĽĽåįģ": 2527,
      "æŁ¥": 2528,
      "Ġhand": 2529,
      "æĳ¸": 2530,
      "çŀĴ": 2531,
      "èĸĽèŁł": 2532,
      "éŀŃ": 2533,
      "äºĨä¸Ģä¸ª": 2534,
      "èµĮ": 2535,
      "éĤ¢å¤«äºº": 2536,
      "æĢİçĶŁ": 2537,
      "åŀĤ": 2538,
      "ä¸įåĩº": 2539,
      "å¥½çļĦ": 2540,
      "å¤ªå®Ī": 2541,
      "æıĴ": 2542,
      "åı²è¿Ľ": 2543,
      "ä»Ŀ": 2544,
      "éģĵå£«": 2545,
      "åį§": 2546,
      "æŃ¤äºº": 2547,
      "èĩªæľī": 2548,
      "çľĭçĿĢ": 2549,
      "ä½ķä¸į": 2550,
      "é¢Ħ": 2551,
      "ç²ī": 2552,
      "è²Į": 2553,
      "æĢİçļĦ": 2554,
      "çĻ¾å§ĵ": 2555,
      "very": 2556,
      "è¿³": 2557,
      "å£®": 2558,
      "ĠWith": 2559,
      "æıŃ": 2560,
      "ç¼ł": 2561,
      "æľ±ä»Ŀ": 2562,
      "ĠRICHARD": 2563,
      "Ġwho": 2564,
      "ç¥Ŀ": 2565,
      "æĿĢäºĨ": 2566,
      "ENTIO": 2567,
      "çŃĶéģĵ": 2568,
      "ĠThou": 2569,
      "å§ľç»´": 2570,
      "æĬµ": 2571,
      "å·¥": 2572,
      "Ġsome": 2573,
      "è¡ĮæĿİ": 2574,
      "è¡ĮèĢħç¬ĳéģĵ": 2575,
      "ĠWe": 2576,
      "åıªè§ģéĤ£": 2577,
      "çĭ¼": 2578,
      "æĲ¬": 2579,
      "éļıåį³": 2580,
      "èĻ½çĦ¶": 2581,
      "ign": 2582,
      "éĺ®å°ı": 2583,
      "æ¸©": 2584,
      "èĤļ": 2585,
      "åŃ©åŃĲ": 2586,
      "ä»ĸä¸Ģ": 2587,
      "éĢ¢": 2588,
      "çŁ¥åºľ": 2589,
      "å°ıä¸«å¤´": 2590,
      "ance": 2591,
      "ĠWhich": 2592,
      "æī®": 2593,
      "æĭį": 2594,
      "Ġmar": 2595,
      "åıĪä¸į": 2596,
      "Ġhon": 2597,
      "nce": 2598,
      "è¯»": 2599,
      "è¯´æĺ¯": 2600,
      "ä¹ĭæĦı": 2601,
      "åľ¨åľ°": 2602,
      "éĢī": 2603,
      "åĵī": 2604,
      "æ¯įäº²": 2605,
      "ç¾Ĭ": 2606,
      "è¿İæİ¥": 2607,
      "ä½Ĩè§ģ": 2608,
      "æ§": 2609,
      "åı¬": 2610,
      "åħ°": 2611,
      "æĬļ": 2612,
      "çĪ¶äº²": 2613,
      "ies": 2614,
      "Ġr": 2615,
      "Ġson": 2616,
      "ĠIn": 2617,
      "ç½®": 2618,
      "éļĶ": 2619,
      "å¿ħçĦ¶": 2620,
      "ç±³": 2621,
      "ire": 2622,
      "ï¼Į\"": 2623,
      "Ġmine": 2624,
      "æ³°": 2625,
      "è½¿": 2626,
      "ä¸Ģä¸ªäºº": 2627,
      "Ġoff": 2628,
      "ç©¶": 2629,
      "åģļä¸ª": 2630,
      "åħ³èĥľ": 2631,
      "åºĦå®¢": 2632,
      "å°Ŀ": 2633,
      "ä¸ĢçĻ¾": 2634,
      "ä½ķå¤Ħ": 2635,
      "äºĶåįĥ": 2636,
      "è¥¿éĹ¨": 2637,
      "æ¨¡æł·": 2638,
      "ist": 2639,
      "å¼łæ¸ħ": 2640,
      "çī¹æĿ¥": 2641,
      "èª": 2642,
      "ä¹ŀ": 2643,
      "æĹĭ": 2644,
      "Ġal": 2645,
      "ince": 2646,
      "åĲİéĿ¢": 2647,
      "æ¸Ĭ": 2648,
      "æĬ¥çŁ¥": 2649,
      "INC": 2650,
      "æª": 2651,
      "éĤ£ä¸Ģ": 2652,
      "å¤§åı«": 2653,
      "har": 2654,
      "ç¬Ķ": 2655,
      "æ²ī": 2656,
      "orn": 2657,
      "éĻ·": 2658,
      "çº§": 2659,
      "ack": 2660,
      "æĿŁ": 2661,
      "åĲ¦": 2662,
      "çĿĢä¸Ģ": 2663,
      "åıĸç»ı": 2664,
      "åĶ¤åģļ": 2665,
      "åĽŀåĪ°": 2666,
      "å¤ªåŃĲ": 2667,
      "æĻĥ": 2668,
      "æ´¾": 2669,
      "å¤ĸéĿ¢": 2670,
      "éľĩ": 2671,
      "æĿ¿": 2672,
      "æĽ²": 2673,
      "åĪ°åºķ": 2674,
      "çĪ¬": 2675,
      "å®¤": 2676,
      "æľīè¯Ĺ": 2677,
      "éĻ©": 2678,
      "ĠWhy": 2679,
      "åĿĲäºĨ": 2680,
      "æĶ¶äºĨ": 2681,
      "æĿ¨éĽĦ": 2682,
      "'t": 2683,
      "åıĻ": 2684,
      "è¯Ī": 2685,
      "çĶĺ": 2686,
      "æł¡": 2687,
      "èİ²": 2688,
      "æĴĴ": 2689,
      "æļĤ": 2690,
      "è¿Ļåİ®": 2691,
      "ä¾Ħ": 2692,
      "å¸Ĥ": 2693,
      "éĹ»å¾Ĺ": 2694,
      "çĬ¶": 2695,
      "wn": 2696,
      "æĿľ": 2697,
      "äºĨä¸¤": 2698,
      "æĪª": 2699,
      "äººåİ»": 2700,
      "åį±": 2701,
      "æĪĳå°±": 2702,
      "å¦ĥ": 2703,
      "åıªä¸Ģ": 2704,
      "æ°¸": 2705,
      "éĵľ": 2706,
      "èıľ": 2707,
      "ĠOf": 2708,
      "ĠGod": 2709,
      "æ¯ıæĹ¥": 2710,
      "ç°ĩ": 2711,
      "EL": 2712,
      "åŃĺ": 2713,
      "æĭ³": 2714,
      "é¦Ĩ": 2715,
      "é¬Ł": 2716,
      "Ġtime": 2717,
      "å±Ĥ": 2718,
      "ä¸ŃéĹ´": 2719,
      "è·Į": 2720,
      "æİ£": 2721,
      "ç¥¥": 2722,
      "Ġhea": 2723,
      "åıĸåĩº": 2724,
      "Ġsuch": 2725,
      "oy": 2726,
      "æĪŁ": 2727,
      "è¯ķ": 2728,
      "æĪĳä¸į": 2729,
      "åĬ¡": 2730,
      "é£ĺ": 2731,
      "ĠFirst": 2732,
      "èĴĭ": 2733,
      "è¯ģ": 2734,
      "Ġhear": 2735,
      "æĿİä¿Ĭ": 2736,
      "æĪ¿ä¸Ń": 2737,
      "éºĿ": 2738,
      "è§Ĩä¹ĭ": 2739,
      "ä¸ĶåĲ¬ä¸ĭåĽŀåĪĨè§£": 2740,
      "åħ¸": 2741,
      "æĺĶ": 2742,
      "åįģäºĮ": 2743,
      "ĠSo": 2744,
      "æĤĦæĤĦ": 2745,
      "å§Ĭå¦¹": 2746,
      "ä¹Ķ": 2747,
      "è¿Ĳ": 2748,
      "æ¯«": 2749,
      "æ¯Ĵ": 2750,
      "ness": 2751,
      "åħĢ": 2752,
      "çľī": 2753,
      "æŃ¤äºĭ": 2754,
      "è°ı": 2755,
      "æĬĬéĤ£": 2756,
      "ç®į": 2757,
      "æ®ĭ": 2758,
      "å¢Ļ": 2759,
      "Ġbrother": 2760,
      "ec": 2761,
      "ç¡": 2762,
      "ä¸įåĪ°": 2763,
      "å¥¸": 2764,
      "å¤§å®ĺäºº": 2765,
      "è°Ī": 2766,
      "ä¸ľåĲ´": 2767,
      "æ¡Ĥ": 2768,
      "è¢ģç»į": 2769,
      "åħ·": 2770,
      "äºĨåĩł": 2771,
      "æŃ¹": 2772,
      "æĪĳåİ»": 2773,
      "æĪĳè¿Ļ": 2774,
      "ä»ĸä¸¤ä¸ª": 2775,
      "ä½łä¸į": 2776,
      "å·´": 2777,
      "éĥĥ": 2778,
      "æŀĹé»Ľçİī": 2779,
      "ä»ª": 2780,
      "åįĴ": 2781,
      "çĶ³": 2782,
      "Ġthese": 2783,
      "æ³¢": 2784,
      "è¯į": 2785,
      "å¾Ī": 2786,
      "å¦¨": 2787,
      "æĭ½": 2788,
      "éĤ£éĩĮåİ»": 2789,
      "ĠCl": 2790,
      "éĴī": 2791,
      "æľĽè§ģ": 2792,
      "é¸¡": 2793,
      "åŃ©åĦ¿": 2794,
      "Ġblood": 2795,
      "Ġå®ĭæ±Ł": 2796,
      "åľĨ": 2797,
      "Ġab": 2798,
      "åĦ¿åŃĲ": 2799,
      "ither": 2800,
      "è½¯": 2801,
      "æĦģ": 2802,
      "æĸĩæŃ¦": 2803,
      "Ġex": 2804,
      "æ¯ķç«Ł": 2805,
      "ä¸«é¬Ł": 2806,
      "çªģ": 2807,
      "æ¹ĸ": 2808,
      "ç¦»äºĨ": 2809,
      "åŃĲéĩĮ": 2810,
      "åħ¬äºº": 2811,
      "Ġgive": 2812,
      "ä¸ľäº¬": 2813,
      "ä½Ļäºº": 2814,
      "èģĮ": 2815,
      "UE": 2816,
      "å°º": 2817,
      "éĥ½çĿ£": 2818,
      "å°ıçļĦ": 2819,
      "åīįæĹ¥": 2820,
      "ä½ķæķħ": 2821,
      "ä¼łä»¤": 2822,
      "èĽ®": 2823,
      "è¢ĸ": 2824,
      "ä¼Ĺäººéĥ½": 2825,
      "è§Ĥçľĭ": 2826,
      "èĭ±éĽĦ": 2827,
      "åĩĮ": 2828,
      "ä¼´": 2829,
      "ä¸ĭäºĨ": 2830,
      "åĳĢ": 2831,
      "Ġfo": 2832,
      "åĴĴ": 2833,
      "åį´ä¸į": 2834,
      "é¦Ļèı±": 2835,
      "åĳ¨çĳľ": 2836,
      "æī«": 2837,
      "çĿĢä»ĸ": 2838,
      "ĠIs": 2839,
      "Ġday": 2840,
      "æį®": 2841,
      "çĤ¹å¤´": 2842,
      "ĠNo": 2843,
      "éĹŃ": 2844,
      "åıªåľ¨": 2845,
      "é©±": 2846,
      "å±ķ": 2847,
      "åı«åģļ": 2848,
      "åħ¬æĺİ": 2849,
      "èĬ¸": 2850,
      "æµª": 2851,
      "Ġear": 2852,
      "ĠæŀĹåĨ²": 2853,
      "åĲı": 2854,
      "å¤§åĨĽ": 2855,
      "Ġro": 2856,
      "ä¸ĳ": 2857,
      "å¤¹": 2858,
      "åħħ": 2859,
      "çĿĽ": 2860,
      "åĸ½": 2861,
      "Ġlook": 2862,
      "éĴ¦": 2863,
      "Ġthink": 2864,
      "è¿ĺä¸į": 2865,
      "ç§»": 2866,
      "æĦıæĢĿ": 2867,
      "ç¿¼": 2868,
      "ä¸Ŀ": 2869,
      "ä»°": 2870,
      "äºĨä½ł": 2871,
      "åĲ¯": 2872,
      "Ġtell": 2873,
      "åİ»å¤Ħ": 2874,
      "ä¸ĬéĿ¢": 2875,
      "ä¾§": 2876,
      "æĭĸ": 2877,
      "çŃĭ": 2878,
      "ĠII": 2879,
      "åı¯æĢľ": 2880,
      "çº·": 2881,
      "åŃĻè¡ĮèĢħ": 2882,
      "ĠHow": 2883,
      "Ġlife": 2884,
      "éĵģæ£Ĵ": 2885,
      "TER": 2886,
      "ä¸įè®¸": 2887,
      "ise": 2888,
      "éĺ¶": 2889,
      "Ġey": 2890,
      "**": 2891,
      "AB": 2892,
      "eet": 2893,
      "ä»Ķ": 2894,
      "å¯¡": 2895,
      "ä¸ŃåĨĽ": 2896,
      "èĩªåİ»": 2897,
      "è½½": 2898,
      "æ¨Ĭ": 2899,
      "Ġwhere": 2900,
      "åĸ½ç½Ĺ": 2901,
      "äºĨäºĽ": 2902,
      "éģ¥": 2903,
      "Ġtake": 2904,
      "Ġword": 2905,
      "åĪ°æĿ¥": 2906,
      "éĹ¨ä¸Ĭ": 2907,
      "æĢİåľ°": 2908,
      "è¥¿å¤©": 2909,
      "å¨ĺå¨ĺ": 2910,
      "æĤ¬": 2911,
      "åı¥è¯Ŀ": 2912,
      "UCH": 2913,
      "éºĿæľĪ": 2914,
      "æĿ¥è§ģ": 2915,
      "oul": 2916,
      "åĬĪ": 2917,
      "ä¸īæĹ¥": 2918,
      "å®Ŀçİīç¬ĳéģĵ": 2919,
      "åĳĺå¤ĸ": 2920,
      "å§¨å¨ĺ": 2921,
      "Ġfriend": 2922,
      "ä»Ķç»Ĩ": 2923,
      "ther": 2924,
      "æ¿": 2925,
      "ĠQ": 2926,
      "åİĭ": 2927,
      "å·¡": 2928,
      "å±±ä¸Ĭ": 2929,
      "æģŃ": 2930,
      "ç«ĸ": 2931,
      "æ¡Ī": 2932,
      "ĠThis": 2933,
      "ag": 2934,
      "age": 2935,
      "åĽŀå®¶": 2936,
      "æĺİåĦ¿": 2937,
      "åĴĮä»ĸ": 2938,
      "è°ģçŁ¥": 2939,
      "èĸĦ": 2940,
      "ç£ķ": 2941,
      "èªĵ": 2942,
      "Ġdes": 2943,
      "éĽģ": 2944,
      "ĠGLO": 2945,
      "è·Łåīį": 2946,
      "UCES": 2947,
      "ĠGLOUCES": 2948,
      "ĠGLOUCESTER": 2949,
      "ef": 2950,
      "een": 2951,
      "è¿·": 2952,
      "éĤ£åİ®": 2953,
      "åıĪè¯´": 2954,
      "éĢ¼": 2955,
      "erv": 2956,
      "æģ°": 2957,
      "éĽĨ": 2958,
      "æĹ©æĻļ": 2959,
      "ĠCome": 2960,
      "çĵ¶": 2961,
      "èĽĩ": 2962,
      "åħ¢": 2963,
      "ä½łä¹Ł": 2964,
      "å¹½": 2965,
      "åī²": 2966,
      "è¾ĵ": 2967,
      "åħµé©¬": 2968,
      "å¸ĪåħĦ": 2969,
      "è¯Ŀä¸ĭ": 2970,
      "æµĳ": 2971,
      "çĸ¾": 2972,
      "åºĦä¸Ĭ": 2973,
      "ust": 2974,
      "åı©": 2975,
      "äººéĥ½": 2976,
      "åİ¢": 2977,
      "å§Ķ": 2978,
      "å·²ç»ı": 2979,
      "Ġgentle": 2980,
      "çĭĤ": 2981,
      "ady": 2982,
      "ç¬¬äºĮ": 2983,
      "rown": 2984,
      "äºķ": 2985,
      "æĿĤ": 2986,
      "äºĨåįĬ": 2987,
      "æľ´": 2988,
      "æŀ¢": 2989,
      "å°ıåİ®": 2990,
      "ä¸Ģä¸ªä¸ª": 2991,
      "çĲ´": 2992,
      "å¦ĸæĢª": 2993,
      "å¥³åŃĲ": 2994,
      "æ¶Ĥ": 2995,
      "æĹ¢æĺ¯": 2996,
      "è¿½èµ¶": 2997,
      "åı¦": 2998,
      "äºĨåİ»": 2999,
      "æĭ´": 3000,
      "è´¾èĵī": 3001,
      "ings": 3002,
      "å¯¨ä¸Ń": 3003,
      "æ±īä¸Ń": 3004,
      "ç¾ŀ": 3005,
      "ĠLord": 3006,
      "éĢĴä¸İ": 3007,
      "åıĭ": 3008,
      "åįł": 3009,
      "å¿ħæĺ¯": 3010,
      "çļĩå¸Ŀ": 3011,
      "ä¸įåľ¨è¯Ŀä¸ĭ": 3012,
      "ĠU": 3013,
      "Ġri": 3014,
      "ä¸Ģéĺµ": 3015,
      "ä¼Ĳ": 3016,
      "åıªè¦ģ": 3017,
      "æĸ¼": 3018,
      "èĲ§": 3019,
      "é¾Ļçİĭ": 3020,
      "urse": 3021,
      "ä»¶äºĭ": 3022,
      "ave": 3023,
      "Ġè¯Ŀè¯´": 3024,
      "ä¸°": 3025,
      "ä¸įæĿ¥": 3026,
      "åĽº": 3027,
      "å°ıåĸ½ç½Ĺ": 3028,
      "ä»¥ä¸º": 3029,
      "å¼ŁåŃĲ": 3030,
      "çĪ¶æ¯į": 3031,
      "å¼ķä¸Ģ": 3032,
      "å¿ħæľī": 3033,
      "éļıåĲİ": 3034,
      "æ¶Īæģ¯": 3035,
      "âĢ¦": 3036,
      "ä¼¸": 3037,
      "ä¹ĭæĹ¶": 3038,
      "åĨĽä¸Ń": 3039,
      "éĺ»": 3040,
      "åĢļ": 3041,
      "ä¸»æĦı": 3042,
      "å¹¶æĹł": 3043,
      "æİ¥åºĶ": 3044,
      "ä¼ıä¾į": 3045,
      "RY": 3046,
      "ase": 3047,
      "è´´": 3048,
      "å±Ī": 3049,
      "ä¸¤éĵ¶åŃĲ": 3050,
      "åįģæķ°": 3051,
      "åŁİæ±ł": 3052,
      "æĢİä¹Īæł·": 3053,
      "æĺ¨æĹ¥": 3054,
      "ºåĦ¿": 3055,
      "ä¸įåıĬ": 3056,
      "è¯´å¾Ĺ": 3057,
      "è¿Ļä¼ļåŃĲ": 3058,
      "åĳµ": 3059,
      "çĽĬ": 3060,
      "è°¨": 3061,
      "éĿ¢åīį": 3062,
      "æĭ¿çĿĢ": 3063,
      "ĠRome": 3064,
      "è¿¹": 3065,
      "ä¹Łæ²¡": 3066,
      "åį´åıĪ": 3067,
      "æģģ": 3068,
      "å°½çļĨ": 3069,
      "å¯»æĢĿ": 3070,
      "tis": 3071,
      "ä¹ĭå¿ĥ": 3072,
      "ä¼Ĺå®ĺ": 3073,
      "Ġlea": 3074,
      "ĠVINC": 3075,
      "Ġart": 3076,
      "UEEN": 3077,
      "ĠQUEEN": 3078,
      "ĠVINCENTIO": 3079,
      "åĲĵ": 3080,
      "æĪĳæĿ¥": 3081,
      "ä½łåİ»": 3082,
      "ä½łä¸Ķ": 3083,
      "åĩºéĹ¨": 3084,
      "é©¬è¶ħ": 3085,
      "å¥½çĶŁ": 3086,
      "å¤ªå¸Ī": 3087,
      "æīĭéĩĮ": 3088,
      "å¸Īå¾Ĵ": 3089,
      "æĶ¾åľ¨": 3090,
      "åĳ¨çĳŀ": 3091,
      "åİŁæĿ¥æĺ¯": 3092,
      "way": 3093,
      "äºĨè¿Ļ": 3094,
      "åıªåĲ¬": 3095,
      "Ġwar": 3096,
      "å¦ĤæĿ¥": 3097,
      "åħµåĻ¨": 3098,
      "è¿ĺè¦ģ": 3099,
      "é«ĺå¤ªå°ī": 3100,
      "ĠOF": 3101,
      "ç³Ĭ": 3102,
      "å²Ĥä¸į": 3103,
      "åĩĨå¤ĩ": 3104,
      "Ġæ¬¡æĹ¥": 3105,
      "åĲŁ": 3106,
      "Ġmost": 3107,
      "å±ı": 3108,
      "èĥ¸": 3109,
      "éĩĳéĵ¶": 3110,
      "ä»¤äºº": 3111,
      "æĥ³æĺ¯": 3112,
      "çĪ·çĪ·": 3113,
      "åłĨ": 3114,
      "Ġhonour": 3115,
      "æĪĳä¸Ģ": 3116,
      "çĿģ": 3117,
      "Ġfl": 3118,
      "ä¼Ĺåĥ§": 3119,
      "åħ¬ä¸»": 3120,
      "å®ĭåħ¬æĺİ": 3121,
      "ä¸ľåľŁ": 3122,
      "å¨ĺåŃĲ": 3123,
      "ĠMar": 3124,
      "è¡£è£": 3125,
      "è±¹": 3126,
      "Ġmuch": 3127,
      "UM": 3128,
      "ä½łè¯´": 3129,
      "ä¹ĭä¸ĭ": 3130,
      "åĴ¬": 3131,
      "ä¼Ĺå¤´é¢Ĩ": 3132,
      "æ³ī": 3133,
      "æ·®": 3134,
      "ç²Ĺ": 3135,
      "æľªçŁ¥": 3136,
      "ç¤¾": 3137,
      "åľŁåľ°": 3138,
      "åıĶåıĶ": 3139,
      "LAN": 3140,
      "ä¸įçĿĢ": 3141,
      "Ġsl": 3142,
      "ä¾¿è¯´": 3143,
      "è¢«ä»ĸ": 3144,
      "èĮĥ": 3145,
      "å¢ĥ": 3146,
      "ĠWhere": 3147,
      "ä¸Ĭä¸Ģ": 3148,
      "çŃĳ": 3149,
      "åĦ¿çļĦ": 3150,
      "äºĮå¥¶å¥¶": 3151,
      "ï¼ĽâĢľ": 3152,
      "éĴ¢": 3153,
      "çĦ¦": 3154,
      "æįķ": 3155,
      "åĸľæ¬¢": 3156,
      "AM": 3157,
      "å°ĸ": 3158,
      "éĩĮå¤´": 3159,
      "åĳ³": 3160,
      "å¹Į": 3161,
      "å¯Ł": 3162,
      "å¼ĢéĹ¨": 3163,
      "æĭľè°¢": 3164,
      "urn": 3165,
      "Ġmade": 3166,
      "åħ¼": 3167,
      "ä¸įçĦ¶": 3168,
      "Ġtw": 3169,
      "ä¹ĭå¤Ħ": 3170,
      "æĦļ": 3171,
      "æľ´åĪĢ": 3172,
      "ment": 3173,
      "åħ½": 3174,
      "ä»ĸæĺ¯": 3175,
      "èĦĳ": 3176,
      "åºķä¸ĭ": 3177,
      "ä¸Ģä¸Ģ": 3178,
      "ä»ĸå°±": 3179,
      "æĥ¹": 3180,
      "æĹ¶è¿ģ": 3181,
      "Ġfear": 3182,
      "æĬĬè¿Ļ": 3183,
      "Ġhast": 3184,
      "åĭ¾": 3185,
      "å¸®": 3186,
      "ä¸ĭåİ»": 3187,
      "åıĪéģĵ": 3188,
      "åĨĽåħµ": 3189,
      "åĲİä¸»": 3190,
      "è¥Ħ": 3191,
      "åĿĲçĿĢ": 3192,
      "åºľéĩĮ": 3193,
      "èµ¶ä¸Ĭ": 3194,
      "èĻ½æĺ¯": 3195,
      "åĺ±": 3196,
      "å·®äºº": 3197,
      "ĠNow": 3198,
      "éº½": 3199,
      "å´ĸ": 3200,
      "æĭĴ": 3201,
      "éĢı": 3202,
      "åĵģ": 3203,
      "è¦ģåİ»": 3204,
      "æİĪ": 3205,
      "æīĵåĲ¬": 3206,
      "æºª": 3207,
      "å¤®": 3208,
      "éĩĩ": 3209,
      "å¥Ĺ": 3210,
      "åŃĲæĿ¥": 3211,
      "åĩºé©¬": 3212,
      "åŃĻå¤§åľ£": 3213,
      "ĠWho": 3214,
      "æĬ¥éģĵ": 3215,
      "ä¸ĢåĲĮ": 3216,
      "åĳĪ": 3217,
      "å¯¸": 3218,
      "ä¸īåĨĽ": 3219,
      "éĥ½åľ¨": 3220,
      "è¿Ľåħµ": 3221,
      "èĻĳ": 3222,
      "Ġbet": 3223,
      "ç¥ŀéĢļ": 3224,
      "ç»Ļä»ĸ": 3225,
      "åĢĺæĪĸ": 3226,
      "åİĨ": 3227,
      "ä¹ĭä¸Ń": 3228,
      "èĻŀ": 3229,
      "åŁİä¸Ĭ": 3230,
      "æĶ¾ä¸ĭ": 3231,
      "ĠHEN": 3232,
      "éŀį": 3233,
      "aught": 3234,
      "ĠHENRY": 3235,
      "åı±": 3236,
      "ä¸įé¢ĺ": 3237,
      "çĽĹ": 3238,
      "ç»ķ": 3239,
      "Ġcou": 3240,
      "å®ĭæ±ŁçŃī": 3241,
      "Ġgreat": 3242,
      "è¿ŀå¤ľ": 3243,
      "çĸı": 3244,
      "éĺµåīį": 3245,
      "çªĿ": 3246,
      "è·ŁçĿĢ": 3247,
      "åĤį": 3248,
      "é¥®éħĴ": 3249,
      "è¡£è£³": 3250,
      "æĪĳèĩª": 3251,
      "æĪĳå¸ĪçĪ¶": 3252,
      "å¾ĹéĤ£": 3253,
      "å¥½äºĽ": 3254,
      "åı«äºº": 3255,
      "ĠBe": 3256,
      "éļ¾éģĵ": 3257,
      "æ¶§": 3258,
      "åıĺä½ľ": 3259,
      "éº»": 3260,
      "è´¤å¼Ł": 3261,
      "åĸĬå£°": 3262,
      "è¶Ĭåıĳ": 3263,
      "ber": 3264,
      "not": 3265,
      "ä¸įåĬ¨": 3266,
      "éģĹ": 3267,
      "ä½łæĢİä¹Ī": 3268,
      "ä¼º": 3269,
      "Ġbre": 3270,
      "å½ĵåħĪ": 3271,
      "åĽĽéĿ¢": 3272,
      "å²±": 3273,
      "åĲĦå¤Ħ": 3274,
      "æŀ¢å¯Ĩ": 3275,
      "åĦ": 3276,
      "èŀ": 3277,
      "ä¸ĢåĽŀ": 3278,
      "äººçļĦ": 3279,
      "æľīçĶļ": 3280,
      "å¾Ĺä»ĸ": 3281,
      "æĭĨ": 3282,
      "æĹ¶åĢĻ": 3283,
      "å®¶ä¸Ń": 3284,
      "ved": 3285,
      "éħĴå®¶": 3286,
      "èħĬ": 3287,
      "çŀ§çŀ§": 3288,
      "Ġnever": 3289,
      "-ï¼Į": 3290,
      "æĭ£": 3291,
      "ä¾¿éĹ®": 3292,
      "æŃ¤éĹ´": 3293,
      "åį´æīį": 3294,
      "åĲİæĿ¥": 3295,
      "å®ĮäºĨ": 3296,
      "æĥľæĺ¥": 3297,
      "ä¸Ģåı£": 3298,
      "åŃĲä¸Ĭ": 3299,
      "éĥĳ": 3300,
      "éĢĬ": 3301,
      "æīĭä¸ĭ": 3302,
      "åĲĥéħĴ": 3303,
      "ç©·": 3304,
      "æ·«": 3305,
      "çĤī": 3306,
      "åħ¶ä½Ļ": 3307,
      "åĢĴæĺ¯": 3308,
      "å¦ĸéŃĶ": 3309,
      "å»Ĭ": 3310,
      "Ġfair": 3311,
      "Ġnew": 3312,
      "çºµé©¬": 3313,
      "éĽ·æ¨ª": 3314,
      "cc": 3315,
      "ee": 3316,
      "ss": 3317,
      "æŃĮ": 3318,
      "æľīä¸Ģä¸ª": 3319,
      "ä¹ĭè®¡": 3320,
      "Ġaf": 3321,
      "æĹ¶åĪĨ": 3322,
      "ower": 3323,
      "è¿İæķĮ": 3324,
      "ap": 3325,
      "igh": 3326,
      "äººä¹Ł": 3327,
      "åĨł": 3328,
      "æĬ¹": 3329,
      "Ġmen": 3330,
      "ä¾¿åİ»": 3331,
      "ä¸īçĻ¾": 3332,
      "åīįåİ»": 3333,
      "çİīå¸Ŀ": 3334,
      "ä¼ĹåĨĽ": 3335,
      "æ³£": 3336,
      "ĠAN": 3337,
      "æ¢ħ": 3338,
      "å¾Ĳå®ģ": 3339,
      "tle": 3340,
      "ä½Ĳ": 3341,
      "å¤§åĵ¥": 3342,
      "åĩºäºĨ": 3343,
      "orrow": 3344,
      "åīįåĲİ": 3345,
      "éĺİ": 3346,
      "æŃ£è¦ģ": 3347,
      "è´¾èĬ¸": 3348,
      "æĥ³çĿĢ": 3349,
      "å¿½æĬ¥": 3350,
      "ç©ºä¸Ń": 3351,
      "ĠYour": 3352,
      "æ²Ļåĥ§éģĵ": 3353,
      "aster": 3354,
      "uke": 3355,
      "åµ": 3356,
      "é³": 3357,
      "æĹı": 3358,
      "éĢĨ": 3359,
      "çľĭä»ĸ": 3360,
      "ĠIt": 3361,
      "æĻ®": 3362,
      "èĪĮ": 3363,
      "éļĨ": 3364,
      "æ²¡äºĨ": 3365,
      "çĮľ": 3366,
      "åĲ´çĶ¨éģĵ": 3367,
      "iz": 3368,
      "éĤ»": 3369,
      "æĬĦ": 3370,
      "æĬĸ": 3371,
      "å¸ĸ": 3372,
      "ough": 3373,
      "ä¸¤è·¯": 3374,
      "åŁİå¤ĸ": 3375,
      "å¨ĩ": 3376,
      "é½¿": 3377,
      "é»Ħå¿ł": 3378,
      "çķĻä¸ĭ": 3379,
      "æŃ¦æĿ¾éģĵ": 3380,
      "æľīä»Ģä¹Ī": 3381,
      "ä¸Ĭä¸ĭ": 3382,
      "æĸ¤": 3383,
      "å¤©æĺİ": 3384,
      "è¢ĭ": 3385,
      "è´¾èµ¦": 3386,
      "æį»": 3387,
      "æľ¬äºĭ": 3388,
      "è¿ĳåīį": 3389,
      "æĿİéĢµéģĵ": 3390,
      "ĠYOR": 3391,
      "å°±æĺ¯äºĨ": 3392,
      "å¿ĺäºĨ": 3393,
      "çĴĭ": 3394,
      "ĠYORK": 3395,
      "ä¸įå°½": 3396,
      "åį°": 3397,
      "å¦Ĩ": 3398,
      "Ġcall": 3399,
      "åĿĬ": 3400,
      "Ġpart": 3401,
      "çĽ¸åħ¬": 3402,
      "å¹´çºª": 3403,
      "çĭ®": 3404,
      "çĽ´åĪ°": 3405,
      "çĽ´èĩ³": 3406,
      "è£¹": 3407,
      "Ġany": 3408,
      "åĨµä¸Ķ": 3409,
      "è¦": 3410,
      "ä¸Ģä»¶": 3411,
      "éģĵäºº": 3412,
      "æľµ": 3413,
      "ä½łå°±": 3414,
      "èĩĤ": 3415,
      "æĭĪ": 3416,
      "éĻĲ": 3417,
      "æ³¥": 3418,
      "åŁİéĹ¨": 3419,
      "è¶£": 3420,
      "ç¾½": 3421,
      "å¥ıéģĵ": 3422,
      "è¥¿éĹ¨åºĨ": 3423,
      "Ġra": 3424,
      "ä¸Ľ": 3425,
      "æĪļ": 3426,
      "æľīäºĨ": 3427,
      "ä½łåı¯": 3428,
      "åºµ": 3429,
      "æģķ": 3430,
      "æĮ¥": 3431,
      "èĢĮè¡Į": 3432,
      "ation": 3433,
      "æĥ³èµ·": 3434,
      "ĠOr": 3435,
      "ç¢§": 3436,
      "çĮ´çİĭ": 3437,
      "ä¸ķ": 3438,
      "ä¹ĭçī©": 3439,
      "æŃ¤è¨Ģ": 3440,
      "è¾Ľ": 3441,
      "èĩªåľ¨": 3442,
      "å¼łéĥĥ": 3443,
      "INIUS": 3444,
      "ST": 3445,
      "Ġad": 3446,
      "åľ¨éĤ£": 3447,
      "ree": 3448,
      "ä¸Ńä¹¦": 3449,
      "èħ¿": 3450,
      "ide": 3451,
      "é¹¿": 3452,
      "éĽ¨æĿĳ": 3453,
      "å«ĤåŃĲ": 3454,
      "Ġcomm": 3455,
      "Ġcannot": 3456,
      "è¤ļ": 3457,
      "ĠæĻºæ·±": 3458,
      "åĲ«": 3459,
      "å¤§è´¥": 3460,
      "éĢĤ": 3461,
      "å¤©åľ°": 3462,
      "å¤©èī²": 3463,
      "çģ¾": 3464,
      "çĦ°": 3465,
      "çĦļ": 3466,
      "Ġpre": 3467,
      "ç©Ĩ": 3468,
      "æĤ£": 3469,
      "ç¤º": 3470,
      "è´¾æ¯įéģĵ": 3471,
      "å«Į": 3472,
      "å¿łä¹ī": 3473,
      "è¦Ĩ": 3474,
      "å®ħ": 3475,
      "ä¸ĭå¯¨": 3476,
      "çŁ¥æĺ¯": 3477,
      "æīĵæŃ»": 3478,
      "åħ¥æĿ¥": 3479,
      "æīįå¥½": 3480,
      "äºĨä¸Ģéģį": 3481,
      "éľŀ": 3482,
      "Ġstand": 3483,
      "é²ľ": 3484,
      "Ġtrue": 3485,
      "Ġheaven": 3486,
      "??": 3487,
      "æĪĳè¿ĻéĩĮ": 3488,
      "è§ĳ": 3489,
      "å±ŀ": 3490,
      "çİĭå©Ĩ": 3491,
      "åĲİäºº": 3492,
      "Ġname": 3493,
      "ç§¯": 3494,
      "è§£çıį": 3495,
      "ĠPET": 3496,
      "é¼»": 3497,
      "å¡ŀ": 3498,
      "AU": 3499,
      "äºĨä¸ª": 3500,
      "éģµ": 3501,
      "åİī": 3502,
      "å°Ĩèµ·æĿ¥": 3503,
      "è®«": 3504,
      "å¥½æŃ¹": 3505,
      "çĪ½": 3506,
      "åĿł": 3507,
      "æĮ£": 3508,
      "æīĭæ®µ": 3509,
      "éĵĥ": 3510,
      "Ġbeen": 3511,
      "æ°´åĨĽ": 3512,
      "ä¸»äºº": 3513,
      "åĪĺåĶĲ": 3514,
      "æ¥¼ä¸Ĭ": 3515,
      "åºĹéĩĮ": 3516,
      "Ġpray": 3517,
      "hing": 3518,
      "old": 3519,
      "ä¸Ģåıª": 3520,
      "ä¸Ģè¡Į": 3521,
      "å¼±": 3522,
      "æľīçļĦ": 3523,
      "ä½łä¸¤ä¸ª": 3524,
      "å¤§å¤«": 3525,
      "å¤§æ±ī": 3526,
      "åıĪæĿ¥": 3527,
      "ç»ĳ": 3528,
      "å§ĭ": 3529,
      "äºĮçĻ¾": 3530,
      "Ġcl": 3531,
      "èµ°æĿ¥": 3532,
      "åħĪä¸»": 3533,
      "èīº": 3534,
      "Ġsweet": 3535,
      "DW": 3536,
      "ä¸Ģåº§": 3537,
      "éĿł": 3538,
      "åįģä¸ĩ": 3539,
      "èº«ä¸Ģ": 3540,
      "èµ°åĪ°": 3541,
      "Ġper": 3542,
      "Ġple": 3543,
      "æĲľ": 3544,
      "ĠEDW": 3545,
      "å®¹æĺĵ": 3546,
      "åİħä¸Ĭ": 3547,
      "çĲ¼èĭ±": 3548,
      "æĹĭé£İ": 3549,
      "ĠEDWARD": 3550,
      "ple": 3551,
      "åİ»çļĦ": 3552,
      "åĽĽä¸ĭ": 3553,
      "çĥĪ": 3554,
      "è§£å®Ŀ": 3555,
      "ĠGR": 3556,
      "å¥ıæĽ°": 3557,
      ",--": 3558,
      "å¤Ł": 3559,
      "çİ©": 3560,
      "å¤§åĲį": 3561,
      "å¤§åĵŃ": 3562,
      "ä¹Łå°±": 3563,
      "åĸı": 3564,
      "ç«ł": 3565,
      "åı«å£°": 3566,
      "Ġdoth": 3567,
      "å®ĿçİīåĲ¬äºĨ": 3568,
      "éķ¿å®ī": 3569,
      "æįŁ": 3570,
      "æŃ¦å¤§": 3571,
      "æľĹ": 3572,
      "åĨĴ": 3573,
      "åº¶": 3574,
      "æŃ¤å¤Ħ": 3575,
      "è¾±": 3576,
      "äºĮä½į": 3577,
      "æĮ¨": 3578,
      "å®ĭåħĪéĶĭ": 3579,
      "æĤĶ": 3580,
      "è¢Ńäººéģĵ": 3581,
      "Ġnoble": 3582,
      "è´«åĥ§": 3583,
      "è¯Ľ": 3584,
      "éĤ£åĳĨåŃĲ": 3585,
      "ä¸ĬäºĨ": 3586,
      "Ġwr": 3587,
      "åĵĢ": 3588,
      "èĭı": 3589,
      "æİ·": 3590,
      "éĴĪ": 3591,
      "Ġown": 3592,
      "ears": 3593,
      "ç´łæĹ¥": 3594,
      "âĸ": 3595,
      "åĲĲ": 3596,
      "è¾ĥ": 3597,
      "æīĭä¸Ń": 3598,
      "å¨¶": 3599,
      "å¦ĸçİĭ": 3600,
      "å®ļäºĨ": 3601,
      "ä¹Łä¸įæķ¢": 3602,
      "ĠLUC": 3603,
      "æ¥ļ": 3604,
      "è¾ŀäºĨ": 3605,
      "è·ªä¸ĭ": 3606,
      "âĸ¡": 3607,
      "âĪ": 3608,
      "åįĪ": 3609,
      "ouse": 3610,
      "æĸŁ": 3611,
      "éĢĶ": 3612,
      "æĹłç¤¼": 3613,
      "Ġdone": 3614,
      "æĥ³éģĵ": 3615,
      "èĳ¬": 3616,
      "ä¼ºåĢĻ": 3617,
      "Ġè¿Ļ": 3618,
      "æĿ°": 3619,
      "è¿Ŀ": 3620,
      "ä¸Ģæł·": 3621,
      "çļĦäºĨ": 3622,
      "ä¹ĭåľ°": 3623,
      "åĽŀæĬ¥": 3624,
      "å¤ªå®Ĺ": 3625,
      "ä»¥åĲİ": 3626,
      "äºĳå¤´": 3627,
      "çĹ´": 3628,
      "ĠThere": 3629,
      "åķĨéĩı": 3630,
      "åŁĭä¼ı": 3631,
      "ull": 3632,
      "ï¼į": 3633,
      "ãĢĤãĢį": 3634,
      "å®ĩ": 3635,
      "åĲŀ": 3636,
      "Ġtr": 3637,
      "éĤĢ": 3638,
      "éĥĵ": 3639,
      "Ġway": 3640,
      "å°ıè·¯": 3641,
      "åı¯æĺ¯": 3642,
      "çº¿": 3643,
      "æµ®": 3644,
      "å®īæŃĩ": 3645,
      "çľŁäºº": 3646,
      "éºŁ": 3647,
      "éŃĶçİĭ": 3648,
      "ä»ĵ": 3649,
      "åį«": 3650,
      "åĨĪ": 3651,
      "ä½łæĿ¥": 3652,
      "åľ¨å¤ĸ": 3653,
      "åī©": 3654,
      "Ġother": 3655,
      "åľ°æĸ¹": 3656,
      "Ġhead": 3657,
      "æĵĤ": 3658,
      "æİ¥äºĨ": 3659,
      "å¦Īå¦Ī": 3660,
      "æĩĴ": 3661,
      "ife": 3662,
      "æĬĺäºĨ": 3663,
      "RO": 3664,
      "aw": 3665,
      "ä¹ł": 3666,
      "å¼©": 3667,
      "åľ¨å®¶": 3668,
      "é©¿": 3669,
      "æĥ¯": 3670,
      "éĥ½æĿ¥": 3671,
      "åįģäºĶ": 3672,
      "æĮ¯": 3673,
      "æĹ©å·²": 3674,
      "Ġmean": 3675,
      "æĺŁå¤ľ": 3676,
      "åĳ¨çĳŀå®¶çļĦ": 3677,
      "ä»ĸåİ»": 3678,
      "åĸ·": 3679,
      "Ġpres": 3680,
      "ä¸įçŁ¥æĺ¯": 3681,
      "åĩ¤å§Ĳéģĵ": 3682,
      "åłª": 3683,
      "ç¨³": 3684,
      "UT": 3685,
      "ä¸Ģè·¯": 3686,
      "éģĵçĲĨ": 3687,
      "èµļ": 3688,
      "ä»ĸè¯´": 3689,
      "åıĪéĹ®": 3690,
      "èĢģèĢħ": 3691,
      "æķĻæĪĳ": 3692,
      "Ġbear": 3693,
      "æĴĩ": 3694,
      "ĠEd": 3695,
      "ç«¯çļĦ": 3696,
      "ï¼ļâĢĺ": 3697,
      "åĨ¤": 3698,
      "çİĩ": 3699,
      "å¼ĺ": 3700,
      "ä¹ĭä¸Ĭ": 3701,
      "Ġsc": 3702,
      "åĳĲ": 3703,
      "red": 3704,
      "åģ¶": 3705,
      "Ġnor": 3706,
      "åŁİä¸ĭ": 3707,
      "æĦĪ": 3708,
      "éª¤": 3709,
      "åĩłæĹ¶": 3710,
      "æľªæĽ¾": 3711,
      "æħ°": 3712,
      "çĭĹ": 3713,
      "å¡Ķ": 3714,
      "AP": 3715,
      "EO": 3716,
      "Ġvery": 3717,
      "è¿Ń": 3718,
      "âĢĿãĢĤ": 3719,
      "Ġsoul": 3720,
      "æĸľ": 3721,
      "çĿĢäºĨ": 3722,
      "è®¿": 3723,
      "è·ĥ": 3724,
      "èĭŀ": 3725,
      "å¿ĥèħ¹": 3726,
      "æĻĮ": 3727,
      "çĽ¸å¾ħ": 3728,
      "ĠAy": 3729,
      "æĸ¹èħĬ": 3730,
      "éĩĳç®į": 3731,
      "åıĸäºĨ": 3732,
      "æįĨ": 3733,
      "çĥĽ": 3734,
      "å©¶": 3735,
      "æĲº": 3736,
      "è±ª": 3737,
      "ĠROM": 3738,
      "éŀĭ": 3739,
      "ĠWhen": 3740,
      "ĠEdward": 3741,
      "ĠROMEO": 3742,
      "ving": 3743,
      "æĺĤ": 3744,
      "åıªåĽł": 3745,
      "Ġboth": 3746,
      "åĪ°è¿ĻéĩĮ": 3747,
      "å±±åĿ¡": 3748,
      "çº±": 3749,
      "Ġnight": 3750,
      "ĠAn": 3751,
      "å·²æ¯ķ": 3752,
      "äºĶæĽ´": 3753,
      "Ġbefore": 3754,
      "æīįæĺ¯": 3755,
      "æ¢¢": 3756,
      "ĠMEN": 3757,
      "æĲł": 3758,
      "è£Ł": 3759,
      "ENIUS": 3760,
      "ass": 3761,
      "aint": 3762,
      "Ġworld": 3763,
      "ĠMENENIUS": 3764,
      "ace": 3765,
      "ger": 3766,
      "éĩĮåİ»": 3767,
      "ä¾¿æĬĬ": 3768,
      "åı«æĪĳ": 3769,
      "åŃĻç«ĭ": 3770,
      "åģļäºĨ": 3771,
      "å»ī": 3772,
      "ĠBy": 3773,
      "åľ£åĥ§": 3774,
      "èĳ£å¹³": 3775,
      "ause": 3776,
      "Ġqueen": 3777,
      "æĤĦæĤĦçļĦ": 3778,
      "li": 3779,
      "çĺ": 3780,
      "æĿ¥ä¹Ł": 3781,
      "éĤ£æ±ī": 3782,
      "ä½łè¿ĺ": 3783,
      "åľ¨é©¬ä¸Ĭ": 3784,
      "èĭį": 3785,
      "åĴ½": 3786,
      "ä¿ħ": 3787,
      "ä¼ĹçļĨ": 3788,
      "åĨįè¯´": 3789,
      "æĸĩä¹¦": 3790,
      "èĮĹ": 3791,
      "ĠLet": 3792,
      "åĺ»": 3793,
      "åıĺåĮĸ": 3794,
      "å®¢äºº": 3795,
      "çĥ¦æģ¼": 3796,
      "æĬ¬å¤´": 3797,
      "æ¤ħ": 3798,
      "TH": 3799,
      "Īè£Ł": 3800,
      "ä¸įåİ»": 3801,
      "å¤§çĪ·": 3802,
      "å¤§å¯¨": 3803,
      "çĿ¿": 3804,
      "è´£": 3805,
      "çĽĨ": 3806,
      "çĽĶ": 3807,
      "Ġmo": 3808,
      "ä¾¿è¦ģ": 3809,
      "è¦ģç´§": 3810,
      "è¢Īè£Ł": 3811,
      "Ġchi": 3812,
      "èįĴ": 3813,
      "å²³": 3814,
      "çĤķ": 3815,
      "æĭ¿ä½ı": 3816,
      "çĳ¾": 3817,
      "ç±»": 3818,
      "éĤĵèī¾": 3819,
      "aughter": 3820,
      "RUCH": 3821,
      "ä¸ĢéģŃ": 3822,
      "äººçŃī": 3823,
      "éĤ£å¦ĸç²¾": 3824,
      "æķĪ": 3825,
      "ä¸Ĭåİ»": 3826,
      "éĥ½å¤´": 3827,
      "æŀī": 3828,
      "èĥİ": 3829,
      "åħ¥åİ»": 3830,
      "èĢĮåĩº": 3831,
      "ĠThen": 3832,
      "ç«¥è´¯": 3833,
      "ĠHere": 3834,
      "èĬ³å®ĺ": 3835,
      "ĠPETRUCH": 3836,
      "ĠPETRUCHIO": 3837,
      "able": 3838,
      "åŃĲçļĦ": 3839,
      "è°¦": 3840,
      "ä½ķå¦Ĥ": 3841,
      "æĬĬä»ĸ": 3842,
      "Ġdown": 3843,
      "çº¹": 3844,
      "äºĽåĦ¿": 3845,
      "åĩłæĹ¥": 3846,
      "çľŁæĺ¯": 3847,
      "æŀĹä¹ĭ": 3848,
      "çĭ±": 3849,
      "é²į": 3850,
      "Ġdead": 3851,
      "åı¹æĽ°": 3852,
      "Ġcont": 3853,
      "åŃŁèİ·": 3854,
      "è¯¸èĳĽäº®": 3855,
      "TES": 3856,
      "åĽĬ": 3857,
      "å¤§è·¯": 3858,
      "å¦¾": 3859,
      "Ġapp": 3860,
      "ä¸ĭä¸Ģ": 3861,
      "äºĮå§Ĳ": 3862,
      "é¢ł": 3863,
      "é«ĺä¿ħ": 3864,
      "ç¦Ħ": 3865,
      "æľªäºĨ": 3866,
      "æıª": 3867,
      "åķ¼": 3868,
      "åĪ©å®³": 3869,
      "æ¦ľ": 3870,
      "ä¸įè¯Ĩ": 3871,
      "âĢĿï¼Į": 3872,
      "æīŃ": 3873,
      "æ±Ĺ": 3874,
      "Ġwh": 3875,
      "é©¬åĮ¹": 3876,
      "ä¸īå¹´": 3877,
      "æĥĩ": 3878,
      "éĥ½ä¸į": 3879,
      "åīįè¿Ľ": 3880,
      "ä»Ĭå¤ľ": 3881,
      "ite": 3882,
      "ä¸Ģä¸ªæĺ¯": 3883,
      "æŃ¦èīº": 3884,
      "é¹¤": 3885,
      "æĭĽå®ī": 3886,
      "Ġke": 3887,
      "æĺĮ": 3888,
      "éģĵæ¸ħ": 3889,
      "èµ¢": 3890,
      "æķ²": 3891,
      "ä¾ĭ": 3892,
      "éķľ": 3893,
      "Ġbeing": 3894,
      "äºĨä¸Ģå£°": 3895,
      "çĥĤ": 3896,
      "å¾ħè¦ģ": 3897,
      "è°ģæķ¢": 3898,
      "åĺī": 3899,
      "Ġrem": 3900,
      "æıĲèµ·": 3901,
      "è½¬è¿ĩ": 3902,
      "æĶ»æīĵ": 3903,
      "çİ°åľ¨": 3904,
      "âĪ¶": 3905,
      "per": 3906,
      "ä¸ĺ": 3907,
      "ä¸įåĪĨ": 3908,
      "çļĦä¸Ģ": 3909,
      "å°Ĩå£«": 3910,
      "èĩªä»İ": 3911,
      "æĹłä¸į": 3912,
      "åģ¥": 3913,
      "èº«è¾¹": 3914,
      "é»ĺ": 3915,
      "éĩĳæ¡Ĥ": 3916,
      "Ġmyself": 3917,
      "æ£ĭ": 3918,
      "éľĦ": 3919,
      "æŃ¥åĨĽ": 3920,
      "åĽŃä¸Ń": 3921,
      "åŃ¦ç©¶": 3922,
      "æ¼«": 3923,
      "ab": 3924,
      "les": 3925,
      "åħĭ": 3926,
      "å¥ĭ": 3927,
      "èĩ¾": 3928,
      "è´§": 3929,
      "éĻĢ": 3930,
      "ä¸ºä»Ģä¹Ī": 3931,
      "ĠThan": 3932,
      "èĤ©": 3933,
      "æķĻå¤´": 3934,
      "é¢ĨäºĨ": 3935,
      "å¾ĢæĿ¥": 3936,
      "ĠMAR": 3937,
      "æķ°åįģ": 3938,
      "èĪ¹ä¸Ĭ": 3939,
      "æĢķä»ĸ": 3940,
      "é¡»èĩ¾": 3941,
      "å¦Ļçİī": 3942,
      "åĨ¬": 3943,
      "è¿Ļä¸¤": 3944,
      "è¡¥": 3945,
      "ç»°": 3946,
      "å½Ģ": 3947,
      "èĩªæĿ¥": 3948,
      "æĹłäºĭ": 3949,
      "è´¾çİ¯": 3950,
      "åĪĨåħµ": 3951,
      "Ġbeg": 3952,
      "è°¢äºĨ": 3953,
      "åħŃåįģ": 3954,
      "æ¢ģä¸Ńä¹¦": 3955,
      "ç¥ĸå®Ĺ": 3956,
      "Ġarm": 3957,
      "ä¸įè¯´": 3958,
      "ä½łè¦ģ": 3959,
      "çľ·": 3960,
      "æŃ¤æĺ¯": 3961,
      "Ġthus": 3962,
      "æĶ¾äºĨ": 3963,
      "åįĬæĹ¥": 3964,
      "è®¡è®®": 3965,
      "ĠCOR": 3966,
      "IOLAN": 3967,
      "è´¾æĶ¿éģĵ": 3968,
      "ilt": 3969,
      "ä¸Īå¤«": 3970,
      "æĬ«æĮĤ": 3971,
      "Ġleave": 3972,
      "ĠCORIOLAN": 3973,
      "ĠCORIOLANUS": 3974,
      "èļ": 3975,
      "ä¸įå·²": 3976,
      "çļĦå¥½": 3977,
      "ä»ĸæĿ¥": 3978,
      "å¯Ħ": 3979,
      "èĪŁ": 3980,
      "åĽłéĹ®": 3981,
      "æ´Ĵ": 3982,
      "è¥¿æĸ¹": 3983,
      "ĠSec": 3984,
      "ç´¢è¶ħ": 3985,
      "Ġgrace": 3986,
      "ĠSecond": 3987,
      "åľĪ": 3988,
      "èµį": 3989,
      "ä¾µ": 3990,
      "ä¹Łç½¢": 3991,
      "èĢģå°ı": 3992,
      "åĢ¾": 3993,
      "æ±Łä¸ľ": 3994,
      "éħĴä¿Ŀ": 3995,
      "æĶ¾çģ«": 3996,
      "Ġunt": 3997,
      "æİ¥çĿĢ": 3998,
      "ç²¾åħµ": 3999,
      "ä¸ĢéĿ¢è¯´": 4000,
      "åĤħ": 4001,
      "ç²®èįī": 4002,
      "ction": 4003,
      "æĿ¥æĹ¥": 4004,
      "æĿ¥è¿İ": 4005,
      "ä½łåıĪ": 4006,
      "åľ¨åĲİ": 4007,
      "ä¾¿äºĨ": 4008,
      "åĽŀé©¬": 4009,
      "å°ıåĦ¿": 4010,
      "èº¬": 4011,
      "åĿĽ": 4012,
      "è¿Ľåıĳ": 4013,
      "åħ¶è¨Ģ": 4014,
      "åĽ½å®¶": 4015,
      "çĭł": 4016,
      "åİ®æĿĢ": 4017,
      "ĠNor": 4018,
      "éĽªéĽģ": 4019,
      "ress": 4020,
      "æ¸Ĳæ¸Ĳ": 4021,
      "ä¸¢äºĨ": 4022,
      "ç¡¬": 4023,
      "Ġeyes": 4024,
      "åĲİäººæľīè¯Ĺ": 4025,
      "åİīå£°": 4026,
      "Ġim": 4027,
      "Ġmother": 4028,
      "è¾Ĩ": 4029,
      "ä»Ĭå¹´": 4030,
      "å£¶": 4031,
      "æľªåı¯": 4032,
      "æĲħ": 4033,
      "æļĸ": 4034,
      "ĠLE": 4035,
      "è¿ľè¿ľ": 4036,
      "æħ¢æħ¢": 4037,
      "æĻĵå¾Ĺ": 4038,
      "å¥´æīį": 4039,
      "ä¹Ķéģĵæ¸ħ": 4040,
      "ç³Ĭæ¶Ĥ": 4041,
      "less": 4042,
      "Ġma": 4043,
      "éĥ½åĪ°": 4044,
      "èµ·åħµ": 4045,
      "ç½ļ": 4046,
      "Ġold": 4047,
      "éħĴæĿ¥": 4048,
      "çĪ¶åŃĲ": 4049,
      "æĽ¹ä»ģ": 4050,
      "è¿İæĺ¥": 4051,
      "å³»": 4052,
      "å¬·å¬·": 4053,
      "é¢Ħå¤ĩ": 4054,
      "åĦĴ": 4055,
      "land": 4056,
      "ran": 4057,
      "«èĬ¦": 4058,
      "ãĢĤâĢĻ": 4059,
      "è¿Ļä¸¤ä¸ª": 4060,
      "ä¹ĭåħµ": 4061,
      "ä¸¤åĨĽ": 4062,
      "éĺĶ": 4063,
      "é¢Ŀ": 4064,
      "å®ĭåħµ": 4065,
      "å¼łè¾½": 4066,
      "åĽĽäºº": 4067,
      "èĳ«èĬ¦": 4068,
      "åĲ´åŃ¦ç©¶": 4069,
      "æĲĢ": 4070,
      "èģĶ": 4071,
      "äº¤æĪĺ": 4072,
      "æĸ½æģ©": 4073,
      "å³°": 4074,
      "èĢĲ": 4075,
      "å¤§èĻ«": 4076,
      "è¾ĸ": 4077,
      "å¤©å¤©": 4078,
      "åĲ¬ç½¢": 4079,
      "äº²æĪļ": 4080,
      "åĪ«çļĦ": 4081,
      "é»Ħä¿¡": 4082,
      "æĹ¢çĦ¶": 4083,
      "Ġrep": 4084,
      "INA": 4085,
      "ï¼ļ`": 4086,
      "ä¸įäºĨ": 4087,
      "ä¸įä¿¡": 4088,
      "ä¸Ģåįĥ": 4089,
      "æĺ¯ä»ĸ": 4090,
      "è¯´æĪĳ": 4091,
      "åº·": 4092,
      "å¤´æĿ¥": 4093,
      "æĶĴ": 4094,
      "çŁ¥åİ¿": 4095,
      "itiz": 4096,
      "æĬĬæĪĳ": 4097,
      "å®ĺåı¸": 4098,
      "å¸¦é¢Ĩ": 4099,
      "Ġever": 4100,
      "éľľ": 4101,
      "æŀĹä¹ĭåŃĿ": 4102,
      "itizen": 4103,
      "lo": 4104,
      "ps": 4105,
      "sw": 4106,
      "ç¹": 4107,
      "çį": 4108,
      "ĠæŃ£": 4109,
      "å®°": 4110,
      "ä¸ĢåĪĻ": 4111,
      "èµĽ": 4112,
      "æľīä¸ī": 4113,
      "æĬĵ": 4114,
      "è´ª": 4115,
      "Ġwife": 4116,
      "å¤©æ°Ķ": 4117,
      "çĪµ": 4118,
      "Ġlong": 4119,
      "åħĪåİ»": 4120,
      "å·²å®ļ": 4121,
      "Ġint": 4122,
      "ä½ľä»Ģä¹Ī": 4123,
      "ĠShe": 4124,
      "Ġlive": 4125,
      "å«ģ": 4126,
      "çİĭå¤«äººéģĵ": 4127,
      "éĢłåĮĸ": 4128,
      "Ġchild": 4129,
      "ä¸Ģçľĭ": 4130,
      "åŃ½": 4131,
      "ä»ĸä¹Ł": 4132,
      "å¤§ä»Ļ": 4133,
      "è´±": 4134,
      "å°Ĩä½Ĳ": 4135,
      "Ġwom": 4136,
      "æŀ·": 4137,
      "æ²¿": 4138,
      "è¢Ħ": 4139,
      "éĽķ": 4140,
      "åĲĥäºĨä¸Ģ": 4141,
      "æĿĢæĿ¥": 4142,
      "çģ«èµ·": 4143,
      "èĹ¤": 4144,
      "å¸¦çĿĢ": 4145,
      "é»Ľçİīéģĵ": 4146,
      "èĦ¸ä¸Ĭ": 4147,
      "è¸¢": 4148,
      "ä»²": 4149,
      "åİ¨": 4150,
      "æĪĳæīį": 4151,
      "ä½ķäºº": 4152,
      "åĲĥé¥Ń": 4153,
      "çĶ¨æīĭ": 4154,
      "æ»´": 4155,
      "éĺµåĬ¿": 4156,
      "ç«ĭäºİ": 4157,
      "å¹²åĩĢ": 4158,
      "è½¬èº«": 4159,
      "èĵ¬": 4160,
      "å¢¨": 4161,
      "ç¿»èº«": 4162,
      "èĥ¡è¯´": 4163,
      "æ½ĺ": 4164,
      "Ġpoor": 4165,
      "Ġfriends": 4166,
      "åı©å¤´": 4167,
      "æĹĮ": 4168,
      "ï¼İ-": 4169,
      "Ġaway": 4170,
      "æ±Łå·ŀ": 4171,
      "ç¥ģ": 4172,
      "ç®Ģ": 4173,
      "çĶŁæ°Ķ": 4174,
      "ä½¿å¾Ĺ": 4175,
      "éĶ£": 4176,
      "ä»İä¹ĭ": 4177,
      "å©¿": 4178,
      "ç²¾ç¥ŀ": 4179,
      "èĴ¸": 4180,
      "çŁ¥éģĵäºĨ": 4181,
      "è¶³ä¸ĭ": 4182,
      "åĨ·ç¬ĳéģĵ": 4183,
      "Ġcons": 4184,
      "ç£¨": 4185,
      "æĬ¼åı¸": 4186,
      "ĠIII": 4187,
      "å°¹": 4188,
      "çļĦä¸Ģå£°": 4189,
      "æľīäºĭ": 4190,
      "è¯´åĩº": 4191,
      "æĬĽ": 4192,
      "éĩĮæĿ¥": 4193,
      "ä¹Łè¦ģ": 4194,
      "åºĵ": 4195,
      "ä¾¿å°Ĩ": 4196,
      "é©¬åĨĽ": 4197,
      "æīĵå¾Ĺ": 4198,
      "é¡·": 4199,
      "çĶŁå¾Ĺ": 4200,
      "è¯·å®ī": 4201,
      "æķĻä½ł": 4202,
      "æ®·": 4203,
      "ç®¡å¾ħ": 4204,
      "æķħæŃ¤": 4205,
      "ĠGo": 4206,
      "åıĹçĶ¨": 4207,
      "æľ±æŃ¦": 4208,
      "å¾Ĳå·ŀ": 4209,
      "å¾ĲæĻĥ": 4210,
      "æĿĲ": 4211,
      "åħĶ": 4212,
      "éģĵæĺ¯": 4213,
      "åĽļ": 4214,
      "éĤ£ä¸Ģä¸ª": 4215,
      "å¦Ħ": 4216,
      "çĶĦ": 4217,
      "æĭĺ": 4218,
      "Ġmight": 4219,
      "éĻĦ": 4220,
      "çŃīåĢĻ": 4221,
      "æĸ¹åı¯": 4222,
      "éħĴé£Ł": 4223,
      "éĶħ": 4224,
      "åĲįåŃĹ": 4225,
      "æ¡¶": 4226,
      "çļĨæĺ¯": 4227,
      "æĪĲéĥ½": 4228,
      "åĤķ": 4229,
      "æĮºæŀª": 4230,
      "ford": 4231,
      "å®¡": 4232,
      "äºĨæĿ¥": 4233,
      "ä½³": 4234,
      "æĪĳçľĭ": 4235,
      "éĤ£åĴĮå°ļ": 4236,
      "ä½łéĤ£": 4237,
      "ä¹Łéĥ½": 4238,
      "æ±ľ": 4239,
      "nder": 4240,
      "ä½ķå¿ħ": 4241,
      "Ġdie": 4242,
      "éĽį": 4243,
      "å·²æĺ¯": 4244,
      "åĨįä¸ī": 4245,
      "é¥¥": 4246,
      "æ¡ĵ": 4247,
      "ĠSir": 4248,
      "èĪ¹åıª": 4249,
      "Ġstay": 4250,
      "eace": 4251,
      "æľ±è´µ": 4252,
      "æĸ©ä¹ĭ": 4253,
      "Ġcomes": 4254,
      "ç£ķå¤´": 4255,
      "ks": 4256,
      "wick": 4257,
      "äº«": 4258,
      "ä¸įä¸Ĭ": 4259,
      "æĪĳåıª": 4260,
      "ï¼İï¼İ": 4261,
      "å¦¥": 4262,
      "oud": 4263,
      "åī¥": 4264,
      "å°ıäºĮ": 4265,
      "æīĵæī®": 4266,
      "æ¬ł": 4267,
      "èº«åŃĲ": 4268,
      "èĭ¥ä½ķ": 4269,
      "atch": 4270,
      "ĠWar": 4271,
      "ä¸¤ä¸ªåħ¬äºº": 4272,
      "æĬ¥ä»ĩ": 4273,
      "led": 4274,
      "æ¢¨": 4275,
      "æĽ¹åħµ": 4276,
      "åįĥéĩĮ": 4277,
      "é½Ĳå¤©": 4278,
      "æ¼Ķ": 4279,
      "Ġmany": 4280,
      "æĭ¦ä½ı": 4281,
      "Ġru": 4282,
      "ä¸įæľŁ": 4283,
      "ä¸Ģå®ļ": 4284,
      "åĪ¤": 4285,
      "æĪĳè¿ĺ": 4286,
      "å¼¥": 4287,
      "ä¸Ĭæľī": 4288,
      "èĩªæŃ¤": 4289,
      "éĽĢ": 4290,
      "Ġhouse": 4291,
      "æĿĢä¹ĭ": 4292,
      "çĮ¿": 4293,
      "çģ«åħī": 4294,
      "èµ¶åĪ°": 4295,
      "å¦Ĥä½ķä¸į": 4296,
      "è¿ĳæĹ¥": 4297,
      "Ġrest": 4298,
      "é¦ĸçº§": 4299,
      "é²ģèĤĥ": 4300,
      "åºĬä¸Ĭ": 4301,
      "ä¸ĢçĤ¹": 4302,
      "å¤§ç¬ĳ": 4303,
      "åľ¨æĹģ": 4304,
      "åıªå¥½": 4305,
      "é©®": 4306,
      "åıĪå°Ĩ": 4307,
      "æĹ¥åŃĲ": 4308,
      "æĥĳ": 4309,
      "å¦Ĥä¹ĭ": 4310,
      "å°ıå§Ĳ": 4311,
      "å±±ä¸Ń": 4312,
      "å±±ä¸ľ": 4313,
      "ä¸ºä½ķ": 4314,
      "Ġcrown": 4315,
      "æĮ¡": 4316,
      "èµ°åĩº": 4317,
      "Ġpe": 4318,
      "æ´Ľ": 4319,
      "åĵ¥åĦ¿": 4320,
      "æĹ©æľī": 4321,
      "æŀĹå§ĳå¨ĺ": 4322,
      "ç¼ĵ": 4323,
      "å·¦è¾¹": 4324,
      "ä½ĻéĩĮ": 4325,
      "é¹ı": 4326,
      "èµµå§¨å¨ĺ": 4327,
      "çĵ¦": 4328,
      "é»ĳæĹĭé£İ": 4329,
      "éĹ²è¯Ŀ": 4330,
      "æĸ½ç¤¼": 4331,
      "ĠWarwick": 4332,
      "ff": 4333,
      "ä¸Ģå¤´": 4334,
      "éĥ½çĽĳ": 4335,
      "å°ıåı¯": 4336,
      "Ġcour": 4337,
      "Ġle": 4338,
      "ows": 4339,
      "åĩłå¹´": 4340,
      "åı·ä»¤": 4341,
      "æºľ": 4342,
      "åĿıäºĨ": 4343,
      "æģģåľ°": 4344,
      "Tis": 4345,
      "come": 4346,
      "Ġent": 4347,
      "åħ®": 4348,
      "å®µ": 4349,
      "ä¸įåĲ¬": 4350,
      "æĪĳä¹Łä¸į": 4351,
      "åĨ°": 4352,
      "ä¸ªäºº": 4353,
      "æľīæŃ¤": 4354,
      "è¯´ä»ĸ": 4355,
      "ä½łåıª": 4356,
      "æĢ¯": 4357,
      "å¸Ľ": 4358,
      "çŁ®": 4359,
      "çĿĢä¸Ģä¸ª": 4360,
      "ä¾¿æĿ¥": 4361,
      "å¯Ĥ": 4362,
      "ison": 4363,
      "å¿ĥä¸ĭ": 4364,
      "ä¸ºäºº": 4365,
      "æŃ£æ¬²": 4366,
      "åı«ä½ł": 4367,
      "éĴ©": 4368,
      "æłħ": 4369,
      "Ġhar": 4370,
      "èİºåĦ¿": 4371,
      "ĠHis": 4372,
      "ç¿ħ": 4373,
      "Ġthought": 4374,
      "çĲĨä¼ļ": 4375,
      "ä¸ĥåħ«": 4376,
      "åıĹäºĨ": 4377,
      "ç³ľ": 4378,
      "çĵľ": 4379,
      "å®¿å¤ªå°ī": 4380,
      "æĭįé©¬": 4381,
      "LA": 4382,
      "SAB": 4383,
      "ĠæĻģçĽĸ": 4384,
      "ä¸ĢåºĶ": 4385,
      "å¤§åĶĲ": 4386,
      "å°Ĩåİ»": 4387,
      "åĩºæĪĺ": 4388,
      "ç¬¦": 4389,
      "è¾ī": 4390,
      "åīįåĦ¿": 4391,
      "ĠISAB": 4392,
      "éĽ¶": 4393,
      "ä»¥æŃ¤": 4394,
      "æĢİæķ¢": 4395,
      "çĤ¼": 4396,
      "é¥¿": 4397,
      "åĲĦåĲĦ": 4398,
      "åºľä¸Ń": 4399,
      "Ġlie": 4400,
      "æķ£äºĨ": 4401,
      "äº¬å¸Ī": 4402,
      "åºŀå¾·": 4403,
      "ELLA": 4404,
      "ĠISABELLA": 4405,
      "ian": 4406,
      "uck": 4407,
      "å¾ĭ": 4408,
      "è¿Ļè¾¹": 4409,
      "ä¸ĭæīĭ": 4410,
      "åºŁ": 4411,
      "åıĪè¦ģ": 4412,
      "ç»ĥ": 4413,
      "ä¸īæĽ´": 4414,
      "iss": 4415,
      "erc": 4416,
      "æ¬§": 4417,
      "éĹ®ä½ł": 4418,
      "åŁº": 4419,
      "åĽĽäºĶ": 4420,
      "è¯·äºĨ": 4421,
      "é¥±": 4422,
      "æĬķéĻį": 4423,
      "å¥Ķèµ°": 4424,
      "å®ĿéĴĹéģĵ": 4425,
      "èı©èĲ¨éģĵ": 4426,
      "èŁ¾": 4427,
      "å´Ķ": 4428,
      "æī¯ä½ı": 4429,
      "çĶ°èĻİ": 4430,
      "RAN": 4431,
      "ä¹ı": 4432,
      "ä¸įå¤§": 4433,
      "å¤§å«Ĥ": 4434,
      "Ġset": 4435,
      "äºĮåĪĻ": 4436,
      "æĹłæķ°": 4437,
      "Ġdaughter": 4438,
      "èĤł": 4439,
      "çķľ": 4440,
      "åĳ½äºº": 4441,
      "åľ£æĹ¨": 4442,
      "å¤ĩç»Ĩ": 4443,
      "è§ĤéŁ³": 4444,
      "è½»è½»": 4445,
      "æµİå·ŀ": 4446,
      "çĮªåħ«æĪĴ": 4447,
      "åľ¨åľ°ä¸ĭ": 4448,
      "å¸Īå¾Ĵä»¬": 4449,
      "che": 4450,
      "ä¸įæīĵ": 4451,
      "æĪĳæĥ³": 4452,
      "ç»µ": 4453,
      "é©¬å²±": 4454,
      "ç¬ĳçĿĢ": 4455,
      "ç«º": 4456,
      "æĻĭ": 4457,
      "æ¬£": 4458,
      "å½ĵå¤ľ": 4459,
      "èĭ¥è¦ģ": 4460,
      "ä¸Ķçľĭ": 4461,
      "èĩ³æŃ¤": 4462,
      "åŃĻæĤŁç©º": 4463,
      "æ·¡": 4464,
      "ĠWell": 4465,
      "éĢģäºĨ": 4466,
      "Ġnothing": 4467,
      "åĪĺè¡¨": 4468,
      "è´¼äºº": 4469,
      "å©Ĩå©Ĩ": 4470,
      "åı³æīĭ": 4471,
      "åĽŃéĩĮ": 4472,
      "ĠRomeo": 4473,
      "ULI": 4474,
      "ĠæĿ¨å¿Ĺ": 4475,
      "ä¸įå¦¨": 4476,
      "ä¸Ģè¾¹": 4477,
      "Ġtong": 4478,
      "æĬ½": 4479,
      "éĢĽ": 4480,
      "åĽŀèº«": 4481,
      "ors": 4482,
      "å°±è¦ģ": 4483,
      "é¢ĩ": 4484,
      "èµ°è·¯": 4485,
      "èĬĿ": 4486,
      "äºİåľ°": 4487,
      "èĤĿ": 4488,
      "atter": 4489,
      "é«ĺåı«éģĵ": 4490,
      "å¾ħæĪĳ": 4491,
      "ç»Ĩç»Ĩ": 4492,
      "æĮĩçĿĢ": 4493,
      "æ¼ı": 4494,
      "ONTES": 4495,
      "ĠJULI": 4496,
      "Ġbetter": 4497,
      "ĠLEONTES": 4498,
      "ĠJULIET": 4499,
      "Ġè¡ĮèĢħ": 4500,
      "æĺ¼": 4501,
      "ä¸ĢåĪĢ": 4502,
      "æĺ¯å¤ľ": 4503,
      "ä¼¦": 4504,
      "æĭ©": 4505,
      "åīª": 4506,
      "ä¸īäºĶ": 4507,
      "ittle": 4508,
      "ä¸ºè¯ģ": 4509,
      "çģ°": 4510,
      "æµħ": 4511,
      "Ġgone": 4512,
      "ä¸ľåįĹ": 4513,
      "ĠSt": 4514,
      "æĲ¦": 4515,
      "æ¶¦": 4516,
      "ĠNay": 4517,
      "ç©¿äºĨ": 4518,
      "ç»ŁåĨĽ": 4519,
      "Ġprince": 4520,
      "ĠVI": 4521,
      "åĥ»": 4522,
      "çľŁä¸ªæĺ¯": 4523,
      "åĳĲåĸĬ": 4524,
      "éĩĳç®įæ£Ĵ": 4525,
      "rant": 4526,
      "å¤¸": 4527,
      "åħľ": 4528,
      "å®¾": 4529,
      "éĤ¹": 4530,
      "å¤§åĸĿ": 4531,
      "åĽŀéģĵ": 4532,
      "èįĲ": 4533,
      "æĿĢæŃ»": 4534,
      "éŃĦ": 4535,
      "åĢĴäºĨ": 4536,
      "èī³": 4537,
      "æ»Ķ": 4538,
      "èĥľè´Ł": 4539,
      "å¦ĤæŃ¤è¯´": 4540,
      "é¼ł": 4541,
      "äº¤éĶĭ": 4542,
      "çļĩåıĶ": 4543,
      "æ¦Ĥ": 4544,
      "AD": 4545,
      "ä¸įä»İ": 4546,
      "ä¸įåĲĮ": 4547,
      "åİ»ä¹Ł": 4548,
      "æľīå¤±": 4549,
      "ä¹ĭåĨħ": 4550,
      "ought": 4551,
      "Ġwit": 4552,
      "int": 4553,
      "é©¬ä¸ĭ": 4554,
      "è°Ń": 4555,
      "éĻħ": 4556,
      "éĹ¨éĩĮ": 4557,
      "æīĵäºĨ": 4558,
      "æīĵå¼Ģ": 4559,
      "æ±ŁåįĹ": 4560,
      "éĽħ": 4561,
      "æĮ½": 4562,
      "åĮ£": 4563,
      "èĤ¡": 4564,
      "æ´²": 4565,
      "åĿĲå®ļ": 4566,
      "æĭ¿æĿ¥": 4567,
      "çĭĲ": 4568,
      "çĻ½é©¬": 4569,
      "æĳĦ": 4570,
      "ĠLAD": 4571,
      "åħīæĻ¯": 4572,
      "æĿ¨æŀĹ": 4573,
      "ä¿ĿæĬ¤": 4574,
      "åĶĲåĥ§éģĵ": 4575,
      "æ®¿ä¸Ĭ": 4576,
      "è¸ª": 4577,
      "èĳ£åįĵ": 4578,
      "è¹Ħ": 4579,
      "èĿī": 4580,
      "èĻŀåĢĻ": 4581,
      "ĠLADY": 4582,
      "\"ï¼Į": 4583,
      "AL": 4584,
      "CE": 4585,
      "well": 4586,
      "ä¸Ģä¸ĩ": 4587,
      "ä¸Ģåĳĺ": 4588,
      "Ġtri": 4589,
      "æĺ¯ä¸Ģ": 4590,
      "æĪĳè¦ģ": 4591,
      "ä»ĸåıĪ": 4592,
      "è§ģå¾Ĺ": 4593,
      "ä¹ĭæĽ°": 4594,
      "åºŃ": 4595,
      "ä¾¿æķĻ": 4596,
      "ä¾¿è¯´éģĵ": 4597,
      "è¾ħ": 4598,
      "è°ķ": 4599,
      "æİª": 4600,
      "åį´ä¹Ł": 4601,
      "çĦī": 4602,
      "æ¸Ķ": 4603,
      "æĿİåºĶ": 4604,
      "åį³åĳ½": 4605,
      "ENCE": 4606,
      "ied": 4607,
      "me": 4608,
      "çļĤ": 4609,
      "çļĦä¸ľè¥¿": 4610,
      "æľīåĩł": 4611,
      "å¤§åįĬ": 4612,
      "å°ĨåĩºæĿ¥": 4613,
      "éĥĿ": 4614,
      "çľĭéĤ£": 4615,
      "åĿĳ": 4616,
      "è¨Ģéģĵ": 4617,
      "æ²¡äºº": 4618,
      "æŁľ": 4619,
      "éĤ£éĩĮèĤ¯": 4620,
      "é«ĺå»ī": 4621,
      "è¿ŀæĹ¥": 4622,
      "ç«ĭåľ¨": 4623,
      "æļ´": 4624,
      "æ¸ħé£İ": 4625,
      "ĠPro": 4626,
      "åłĤä¸Ĭ": 4627,
      "ç«¥åŃĲ": 4628,
      "ä¹ĺåĬ¿": 4629,
      "å¤ºäºĨ": 4630,
      "æ½ľ": 4631,
      "Ġnews": 4632,
      "Ġkeep": 4633,
      "os": 4634,
      "ä¸įå¤ļæĹ¶": 4635,
      "äººæ°ı": 4636,
      "åį¦": 4637,
      "åĨĢ": 4638,
      "è§ģéĤ£": 4639,
      "ä¸ĭæĸĩ": 4640,
      "Ġsle": 4641,
      "é©¸": 4642,
      "ç»Ń": 4643,
      "åī¿": 4644,
      "Ġbest": 4645,
      "æŀķ": 4646,
      "çİĭåŃĲ": 4647,
      "éļĺ": 4648,
      "ç§ĥ": 4649,
      "æĵħ": 4650,
      "å®īæĬļ": 4651,
      "æ±īåŃĲ": 4652,
      "æĳ©": 4653,
      "å·¦æīĭ": 4654,
      "Ġres": 4655,
      "å§ĳå¨ĺä»¬": 4656,
      "è®°å¾Ĺ": 4657,
      "èĤĥæĽ°": 4658,
      "Ġagainst": 4659,
      "çŃĭæĸĹ": 4660,
      "ces": 4661,
      "for": 4662,
      "ious": 4663,
      "ĠæŃ¦æĿ¾": 4664,
      "ä¸įè§ģäºĨ": 4665,
      "æĹ¦": 4666,
      "æĹº": 4667,
      "æĿ¥æķĳ": 4668,
      "åĪ®": 4669,
      "æĪĳåıĪ": 4670,
      "æĪĳåĴĮä½ł": 4671,
      "hall": 4672,
      "èĢģéŃĶ": 4673,
      "å¤©å®«": 4674,
      "æ¬¾": 4675,
      "Ġthose": 4676,
      "åĽłè§ģ": 4677,
      "æĿĢåħ¥": 4678,
      "åı£ä¸Ń": 4679,
      "ĠServ": 4680,
      "æĴĳ": 4681,
      "è®¸è¤ļ": 4682,
      "ä¼ıåħµ": 4683,
      "åı¤äºº": 4684,
      "æĺ¨åĦ¿": 4685,
      "åĥı": 4686,
      "å¯Įè´µ": 4687,
      "ier": 4688,
      "æĪĪ": 4689,
      "èĢ½": 4690,
      "å¾Ĺä¸Ģ": 4691,
      "Ġacc": 4692,
      "å·¢": 4693,
      "é©°": 4694,
      "éĥģ": 4695,
      "éĢĲ": 4696,
      "å®ĿçĲ´": 4697,
      "å®ĿèŁ¾": 4698,
      "Ġlittle": 4699,
      "Ġhence": 4700,
      "Ġgri": 4701,
      "å¤«å¦»": 4702,
      "çĶļæĺ¯": 4703,
      "ĠSIC": 4704,
      "èµ¶çĿĢ": 4705,
      "ĠCitizen": 4706,
      "æŀľåŃĲ": 4707,
      "ool": 4708,
      "è£ģ": 4709,
      "ä¼¼çļĦ": 4710,
      "æģĲæĢķ": 4711,
      "æ´ŀéĩĮ": 4712,
      "åıĮæīĭ": 4713,
      "Ġcomp": 4714,
      "hard": 4715,
      "ĠSICINIUS": 4716,
      "è¯Ģ": 4717,
      "åĪ¹": 4718,
      "è§Ħ": 4719,
      "èĢĢ": 4720,
      "åĩĳ": 4721,
      "å¾Ĺä¸ª": 4722,
      "åıªåı«": 4723,
      "è¾¨": 4724,
      "ä¸İä¼Ĺ": 4725,
      "åįģä¸ª": 4726,
      "Ġthing": 4727,
      "Ġhour": 4728,
      "åŃĻçŃĸ": 4729,
      "å®ļè¦ģ": 4730,
      "æĭľä½Ľ": 4731,
      "åĪ«äºĨ": 4732,
      "æľ¬éĥ¨": 4733,
      "æĪ¿åĨħ": 4734,
      "è£Ļ": 4735,
      "ä¼Ĺäººéģĵ": 4736,
      "è°¢æģ©": 4737,
      "æıĲè¾ĸ": 4738,
      "ĠNot": 4739,
      "ä¾įéĥİ": 4740,
      "éªĳé©¬": 4741,
      "Ġlords": 4742,
      "æ¦»": 4743,
      "æīĩåŃĲ": 4744,
      "èŀį": 4745,
      "é©¸é©¬": 4746,
      "ty": 4747,
      "ä¸įè¶³": 4748,
      "ä¸Ģåıĳ": 4749,
      "ä¸Ģåı¥": 4750,
      "åįļ": 4751,
      "è§Ī": 4752,
      "éĩĬ": 4753,
      "åĨĽåĻ¨": 4754,
      "äºĮæĽ´": 4755,
      "Ġput": 4756,
      "åĴĮæĪĳ": 4757,
      "å·²åĪ°": 4758,
      "å¤ļå®ĺ": 4759,
      "ä¸¤ä¸ªäºº": 4760,
      "éĹ»çŁ¥": 4761,
      "ç¬¬ä¸Ģ": 4762,
      "çŃĶæĽ°": 4763,
      "åıĺåģļ": 4764,
      "ardon": 4765,
      "Ġface": 4766,
      "æį¢äºĨ": 4767,
      "akes": 4768,
      "une": 4769,
      "èķĬ": 4770,
      "å·¥å¤«": 4771,
      "éĺ®å°ıä¸ĥ": 4772,
      "lse": 4773,
      "ä¸įç®¡": 4774,
      "ä¸Ģè§ģ": 4775,
      "ä¹ĭå£°": 4776,
      "è¡®": 4777,
      "ä»Ĭçķª": 4778,
      "llow": 4779,
      "è¿ĽåŁİ": 4780,
      "åĽĽä¼Ĺ": 4781,
      "æĸ¹ä¾¿": 4782,
      "å®ĺåĨĽ": 4783,
      "éĩĳåĪļ": 4784,
      "æŃ»çļĦ": 4785,
      "èĦī": 4786,
      "éĶ¡": 4787,
      "sed": 4788,
      "æķ°æĹ¥": 4789,
      "æĲģ": 4790,
      "å®ĪæĬĬ": 4791,
      "Ġend": 4792,
      "ç¤¼æ¯ķ": 4793,
      "ĠOn": 4794,
      "è®¸éĥ½": 4795,
      "Ġkind": 4796,
      "çĬ¬": 4797,
      "ç®Ńå°Ħ": 4798,
      "ä¸įè¿ĩæĺ¯": 4799,
      "å¤§æĢĴæĽ°": 4800,
      "å¿įä¸įä½ı": 4801,
      "çŃĶåºĶäºĨ": 4802,
      "EY": 4803,
      "å°Ķ": 4804,
      "ä¸Ģäºĭ": 4805,
      "ä¸ĢåĿĹ": 4806,
      "æĪĳå®¶": 4807,
      "å¿Ĵ": 4808,
      "è¡«": 4809,
      "çĽĴ": 4810,
      "å¥½å¤§åľ£": 4811,
      "åį´å¥½": 4812,
      "æŃ£ç»ı": 4813,
      "éĴı": 4814,
      "Ġyoung": 4815,
      "åŁİéĩĮ": 4816,
      "ä¸Ķè¯·": 4817,
      "åħ³æĸĩ": 4818,
      "æ»©": 4819,
      "é£ŀæĬ¥": 4820,
      "Ġstill": 4821,
      "ç¬¬ä¸ī": 4822,
      "å¸Ĳä¸Ń": 4823,
      "ult": 4824,
      "åĭĴé©¬": 4825,
      "æ¿Ģ": 4826,
      "åħ¢åħ¢": 4827,
      "Ġtwo": 4828,
      "æ´Ľéĺ³": 4829,
      "ä¸ĭæĸĩåĪĨè§£": 4830,
      "ä¸Ĭå¤´": 4831,
      "ä¸Ĭå²¸": 4832,
      "ä¹Łå¥½": 4833,
      "ret": 4834,
      "èĩªåĽŀ": 4835,
      "ork": 4836,
      "åĸ§": 4837,
      "ont": 4838,
      "Ġpri": 4839,
      "æĿĢäºº": 4840,
      "éĶĲ": 4841,
      "éª¸": 4842,
      "æŁ±": 4843,
      "åİŁæķħ": 4844,
      "ç¥ŀä»Ļ": 4845,
      "ç¼Ŀ": 4846,
      "æ£º": 4847,
      "Ġhimself": 4848,
      "è¯ĹæĽ°": 4849,
      "èĦ±äºĨ": 4850,
      "ield": 4851,
      "éĴīéĴ¯": 4852,
      "å¯¡äºº": 4853,
      "ç¥ģå±±": 4854,
      "ud": 4855,
      "åıł": 4856,
      "ä¸Ģå®¶": 4857,
      "ä¸ĢæŃ¥": 4858,
      "æĿ¥è¯·": 4859,
      "è¯´æ¯ķ": 4860,
      "ä¹ĭæģ©": 4861,
      "åŃĲé¾Ļ": 4862,
      "ä¸īè·¯": 4863,
      "åĵª": 4864,
      "ä½ķä»¥": 4865,
      "æİĢ": 4866,
      "ç¬ĳè¯´": 4867,
      "éĿ¢ä¸Ĭ": 4868,
      "æ³Ħ": 4869,
      "Ġpur": 4870,
      "Ġpower": 4871,
      "æ¢³": 4872,
      "æ£®": 4873,
      "é£ŀé©¬": 4874,
      "å°ĳä¸įå¾Ĺ": 4875,
      "alk": 4876,
      "èİ«éĿŀ": 4877,
      "æħĮäºĨ": 4878,
      "ĠThy": 4879,
      "ä¹°åįĸ": 4880,
      "åĿļå®Ī": 4881,
      "å¤ıä¾¯æĥĩ": 4882,
      "èĲ§è®©": 4883,
      "ĠLUCIO": 4884,
      "å¦Ĥä¹ĭå¥Īä½ķ": 4885,
      "ale": 4886,
      "åħļ": 4887,
      "ä¸įä¼ļ": 4888,
      "ä¸Ģå¤ľ": 4889,
      "ä¸Ģåľº": 4890,
      "æĿ¥èĩ³": 4891,
      "ä½łåį´": 4892,
      "ins": 4893,
      "ä¾¿éĹ®éģĵ": 4894,
      "å¯Ŀ": 4895,
      "æĹ¶è¾°": 4896,
      "ĠIV": 4897,
      "ert": 4898,
      "Ġcha": 4899,
      "çĽ¸ä¼ļ": 4900,
      "è¿ĺäºĨ": 4901,
      "åĽłä¸º": 4902,
      "ä»İæŃ¤": 4903,
      "é¢Ĩåĳ½": 4904,
      "ç¼İ": 4905,
      "çĳģ": 4906,
      "è±«": 4907,
      "ä¼ĳè¦ģ": 4908,
      "ĠRic": 4909,
      "ä¸«å¤´ä»¬": 4910,
      "æ±¤éļĨ": 4911,
      "æ¯«æ¯Ľ": 4912,
      "âĢ¦âĢ¦": 4913,
      "ĠRichard": 4914,
      "ew": 4915,
      "ä¸įå®¹": 4916,
      "èĢ¿": 4917,
      "å¼¹": 4918,
      "åİ»æĿ¥": 4919,
      "ä»ĸåį´": 4920,
      "å¾Ĺèĥľ": 4921,
      "æŃ¤ä¹ĥ": 4922,
      "åĽŀè¯´": 4923,
      "å®¶åºĦ": 4924,
      "åįģåħ«": 4925,
      "åħ¬åŃĲ": 4926,
      "æłı": 4927,
      "äºĶä¸ĥ": 4928,
      "æŃ»äºİ": 4929,
      "æįı": 4930,
      "åĲĦäºº": 4931,
      "çģ«æĬĬ": 4932,
      "æĢ¥æĢ¥": 4933,
      "æĢªéģĵ": 4934,
      "æľ¬æĺ¯": 4935,
      "ĠCL": 4936,
      "åĳĬæĽ°": 4937,
      "è´¼åħµ": 4938,
      "åı³è¾¹": 4939,
      "ç»ĻæĪĳ": 4940,
      "å§ĵåĲį": 4941,
      "æļĹæļĹ": 4942,
      "Ġsub": 4943,
      "Ġtherefore": 4944,
      "çĤ®åĵį": 4945,
      "Ġcount": 4946,
      "TI": 4947,
      "cl": 4948,
      "ft": 4949,
      "ä»·": 4950,
      "è¿¸": 4951,
      "åĪĳ": 4952,
      "ä½łè¿Ļä¸ª": 4953,
      "å¤§éªĤ": 4954,
      "ï¼ģãĢį": 4955,
      "æĭĲ": 4956,
      "iness": 4957,
      "å®¶åİ»": 4958,
      "æŀ¯": 4959,
      "Ġfirst": 4960,
      "æīĵçł´": 4961,
      "æ±Łæ¹ĸ": 4962,
      "éĹ®ä¹ĭ": 4963,
      "Ġpeace": 4964,
      "å½ĵå¹´": 4965,
      "èį·": 4966,
      "Ġgu": 4967,
      "çĤİ": 4968,
      "é«¯": 4969,
      "æĬ¥è¯´": 4970,
      "æ¢°": 4971,
      "æĪĺåħ¢åħ¢": 4972,
      "åĳĬéģĵ": 4973,
      "çŁ³åŃĲ": 4974,
      "åĭ¤": 4975,
      "Ġelse": 4976,
      "æ¶Į": 4977,
      "åĬ¨æīĭ": 4978,
      "è¿İçĿĢ": 4979,
      "ried": 4980,
      "ç¢į": 4981,
      "Ġdear": 4982,
      "å¾Ħèĩ³": 4983,
      "æ½ĩ": 4984,
      "çĳľæĽ°": 4985,
      "çĭ¬èĩª": 4986,
      "èĿĮ": 4987,
      "è¯¯äºĨ": 4988,
      "cious": 4989,
      "Ġunto": 4990,
      "ä»Ĩ": 4991,
      "æĿĨ": 4992,
      "ä¸Ģå¤©": 4993,
      "çļĵ": 4994,
      "Ġtill": 4995,
      "æķķ": 4996,
      "æĢł": 4997,
      "åľ¨æīĭ": 4998,
      "Ġsm": 4999,
      "æĶ¸": 5000,
      "å°ıå¿ĥ": 5001,
      "Ġduke": 5002,
      "Ġcould": 5003,
      "èĭ¥å¾Ĺ": 5004,
      "æĿĢåĩº": 5005,
      "å§ĲåĦ¿": 5006,
      "å®īæķ¢": 5007,
      "ĠWill": 5008,
      "å¼ķçĿĢ": 5009,
      "ĠBR": 5010,
      "è§£äºĨ": 5011,
      "ĠHave": 5012,
      "å¹¶ä¸į": 5013,
      "æ¨µ": 5014,
      "éĵ¶ä¸¤": 5015,
      "ason": 5016,
      "hile": 5017,
      "çĿ¡äºĨ": 5018,
      "å§¨å¤ªå¤ª": 5019,
      "æ²³åĮĹ": 5020,
      "åħĥå¸ħ": 5021,
      "ç§¦éĴŁ": 5022,
      "æĺ¨å¤ľ": 5023,
      "ä½İå¤´": 5024,
      "ä½łçľĭä»ĸ": 5025,
      "ail": 5026,
      "ect": 5027,
      "ile": 5028,
      "Ġçİĭ": 5029,
      "Ġtra": 5030,
      "æĭĤ": 5031,
      "ä¾¿è¯·": 5032,
      "æŃ¤åİ»": 5033,
      "Ġback": 5034,
      "å½Ń": 5035,
      "åĽŀäºĨ": 5036,
      "ä¸¤æĹ¥": 5037,
      "èĢģåĦ¿": 5038,
      "èĩªåı¤": 5039,
      "è¢±": 5040,
      "Ġco": 5041,
      "é¢Ĺ": 5042,
      "Ġhus": 5043,
      "åĮł": 5044,
      "èįĢ": 5045,
      "åľ°ä¸ĭ": 5046,
      "å²«": 5047,
      "åħ¶å®ŀ": 5048,
      "uty": 5049,
      "çĽ´åıĸ": 5050,
      "æĥĬåĬ¨": 5051,
      "éĿĴå·ŀ": 5052,
      "Ġthough": 5053,
      "èĵŁ": 5054,
      "èĬĤçº§": 5055,
      "Ġwords": 5056,
      "ç©Ĩå¼ĺ": 5057,
      "ZAB": 5058,
      "æ¾": 5059,
      "Ġtre": 5060,
      "ä½łèĢģ": 5061,
      "å¤§å°ĨåĨĽ": 5062,
      "åıªæģĲ": 5063,
      "ç»§": 5064,
      "Ġbid": 5065,
      "Ġfell": 5066,
      "Ġfind": 5067,
      "å°±èµ°": 5068,
      "çŃīçĿĢ": 5069,
      "ä¸ºé¦ĸ": 5070,
      "ç¬ĳè¯Ŀ": 5071,
      "æĹłå¥Ī": 5072,
      "Ġdre": 5073,
      "åįģéĩĮ": 5074,
      "å¼łæ¨ª": 5075,
      "åĽĽæķ£": 5076,
      "èĢĮæŃ»": 5077,
      "äºĶåħŃ": 5078,
      "æ´ĭ": 5079,
      "éħĴåºĹ": 5080,
      "åĨįæĿ¥": 5081,
      "åħ¶äºº": 5082,
      "åħ³åħ´": 5083,
      "æ¢¯": 5084,
      "ĠYork": 5085,
      "ĠELI": 5086,
      "èĢ³æľµ": 5087,
      "é¡¾å¤§å«Ĥ": 5088,
      "Ġneed": 5089,
      "å¾¡å¼Ł": 5090,
      "ETH": 5091,
      "Ġearth": 5092,
      "æĵĤé¼ĵ": 5093,
      "Ġtongue": 5094,
      "ZABETH": 5095,
      "ĠELIZABETH": 5096,
      "band": 5097,
      "ius": 5098,
      "ople": 5099,
      "yal": 5100,
      "ä¸Ģå¹´": 5101,
      "è¯±": 5102,
      "äººæĬ¥": 5103,
      "æĪĳæľī": 5104,
      "æĪĳä¾¿": 5105,
      "æĪĳåĢĴ": 5106,
      "éĤ£ä¸¤ä¸ª": 5107,
      "å¤§äºº": 5108,
      "å¤§åħµ": 5109,
      "è§ģè¯´": 5110,
      "å¸½": 5111,
      "å°Ĩä¸ĭæĿ¥": 5112,
      "èĢģåĲĽ": 5113,
      "è°İ": 5114,
      "åı¯æĥľ": 5115,
      "ç¬ĳäºĨ": 5116,
      "Ġlady": 5117,
      "Ġthine": 5118,
      "ç®±": 5119,
      "åı£æ°Ķ": 5120,
      "éªĮ": 5121,
      "æĥ³æĿ¥": 5122,
      "å¦ĸéĤª": 5123,
      "åį³æĹ¥": 5124,
      "ç®¡èĲ¥": 5125,
      "æĶ¶åĨĽ": 5126,
      "æ³ķåĦ¿": 5127,
      "æĦ¿æĦı": 5128,
      "ç¨į": 5129,
      "ç»Łé¢Ĩ": 5130,
      "è®¾å®´": 5131,
      "ä½łè¿Ļåİ®": 5132,
      "çĥŃéĹ¹": 5133,
      "æ·«å¦ĩ": 5134,
      "IAN": 5135,
      "men": 5136,
      "Ġä¸¤ä¸ª": 5137,
      "æĺł": 5138,
      "æŃª": 5139,
      "æĪĳåį´": 5140,
      "æī°": 5141,
      "ä»ĸä¾¿": 5142,
      "ä½łæĹ¢": 5143,
      "æĢ¡": 5144,
      "è§ģè¿ĩ": 5145,
      "ä¹ĭç½ª": 5146,
      "å¾Ĺå¥½": 5147,
      "å¸ķ": 5148,
      "ä¸ĭæ°´": 5149,
      "Ġbra": 5150,
      "ä¸¤ä¸ĭ": 5151,
      "èĩªå®¶": 5152,
      "orse": 5153,
      "åĢį": 5154,
      "Ġhome": 5155,
      "Ġhel": 5156,
      "è¥¿å·Ŀ": 5157,
      "çĮİ": 5158,
      "çĶļéº½": 5159,
      "é¾ļ": 5160,
      "Ġforth": 5161,
      "èĻ½æľī": 5162,
      "Ġseem": 5163,
      "æ´»æįī": 5164,
      "åĮħè£¹": 5165,
      "åı¹éģĵ": 5166,
      "å«Ĥå«Ĥ": 5167,
      "æĪ´å®Ĺéģĵ": 5168,
      "Ġhope": 5169,
      "è¡ĻåĨħ": 5170,
      "eech": 5171,
      "æĹĮæĹĹ": 5172,
      "èĵŁå·ŀ": 5173,
      "ray": 5174,
      "ä¹ĸ": 5175,
      "ä¸įå®ī": 5176,
      "ä¸įèĥľ": 5177,
      "ä¸įä¾Ŀ": 5178,
      "è¿Ļäºĭ": 5179,
      "ä¸ĬçļĦ": 5180,
      "ä¸ĭéĿ¢": 5181,
      "è¡Ķ": 5182,
      "çĿĢéĤ£": 5183,
      "çĿĢå¤´": 5184,
      "ç»¢": 5185,
      "æĹ¶å¸¸": 5186,
      "è·¨": 5187,
      "èĢģå©Ĩ": 5188,
      "èĢģå©ĨåŃĲ": 5189,
      "åīįéĥ¨": 5190,
      "çİĭå¹³": 5191,
      "å¿ĥåĨħ": 5192,
      "æŃ£è¯´çĿĢ": 5193,
      "enry": 5194,
      "æ³½": 5195,
      "ark": 5196,
      "Ġhigh": 5197,
      "åĶĩ": 5198,
      "è¨ĢæĽ°": 5199,
      "åħ¥è§ģ": 5200,
      "èĭ¥æľī": 5201,
      "æĦ§": 5202,
      "èĢĮåĽŀ": 5203,
      "å®ĺåĳĺ": 5204,
      "æŁĵ": 5205,
      "å¿Ļéģĵ": 5206,
      "eth": 5207,
      "æ£Ģ": 5208,
      "åĪ«å¤Ħ": 5209,
      "ĠHenry": 5210,
      "æĥħæĦ¿": 5211,
      "èĸĽèĿĮ": 5212,
      "ĠYet": 5213,
      "è´¾çĲıéģĵ": 5214,
      "ç»ĵæŀľ": 5215,
      "åĻ¨æ¢°": 5216,
      "é½Ĳå¤©å¤§åľ£": 5217,
      "æĲ¦æĪĺ": 5218,
      "Ġhusband": 5219,
      "ç¨Ģ": 5220,
      "èł": 5221,
      "ä¹Ļ": 5222,
      "ä¸įä¾¿": 5223,
      "åĲµ": 5224,
      "ä¸Ģé¡¿": 5225,
      "æĺ¯å¥½": 5226,
      "æĺ¯ä½ķ": 5227,
      "è§ħ": 5228,
      "åĨ¯": 5229,
      "çĿ¦": 5230,
      "æģĭ": 5231,
      "éĹ¨æĿ¥": 5232,
      "æŃ£è¡Į": 5233,
      "éħ¬": 5234,
      "vere": 5235,
      "åŃĻä¹¾": 5236,
      "åħ³ä¸Ĭ": 5237,
      "ç¼ķ": 5238,
      "ç¿ģ": 5239,
      "ĠGood": 5240,
      "å¸Ĳä¸ĭ": 5241,
      "çº·çº·": 5242,
      "Ġright": 5243,
      "get": 5244,
      "èĺ": 5245,
      "è¯´èµ·": 5246,
      "æĭ±": 5247,
      "æ±¡": 5248,
      "æĹ¥æľĪ": 5249,
      "ä¸¤åıª": 5250,
      "éĻ¶": 5251,
      "èĭĩ": 5252,
      "å°±æľī": 5253,
      "å±±ä¸ĭ": 5254,
      "äºĭçļĦ": 5255,
      "Ġchan": 5256,
      "åľ°éĩĮ": 5257,
      "åĪĨæĺİ": 5258,
      "åĨįæĭľ": 5259,
      "æ°ĶçļĦ": 5260,
      "é¸¾": 5261,
      "æ¶Ľ": 5262,
      "çĤ¹èµ·": 5263,
      "ä½Ĩæĺ¯": 5264,
      "ä½ĻåĲĪ": 5265,
      "èģª": 5266,
      "èĥĮå¾Į": 5267,
      "èĮ¶æĿ¥": 5268,
      "æŃĩæģ¯": 5269,
      "çĩķé¡º": 5270,
      "åĮ¹é©¬": 5271,
      "çľģå¾Ĺ": 5272,
      "å£ģåİ¢": 5273,
      "ç¦ħæĿĸ": 5274,
      "å£®å£«": 5275,
      "WIC": 5276,
      "tw": 5277,
      "Ġè¿ĻéĩĮ": 5278,
      "å¤ķ": 5279,
      "ä¸įç»Ŀ": 5280,
      "ä½łä¾¿": 5281,
      "çŁĽ": 5282,
      "Ġmind": 5283,
      "éĢŀ": 5284,
      "ä¾¿åĳ½": 5285,
      "Ġban": 5286,
      "åĵĪ": 5287,
      "äºĮåįĥ": 5288,
      "æ¯¡": 5289,
      "ç½©": 5290,
      "ç«¿": 5291,
      "ĠWAR": 5292,
      "uth": 5293,
      "å¥³å©¿": 5294,
      "å°ļæľª": 5295,
      "éĻįå¦ĸ": 5296,
      "é¼İ": 5297,
      "éĥ¨ä¸ĭ": 5298,
      "èĶ·": 5299,
      "ä¸įå¥½äºĨ": 5300,
      "ç§ĭçº¹": 5301,
      "çĶ·å¥³": 5302,
      "åī¯å°Ĩ": 5303,
      "é¡¹åħħ": 5304,
      "æĬµæķĮ": 5305,
      "å°ıçļĦä»¬": 5306,
      "å¤¹æĶ»": 5307,
      "éĥĵåŁİ": 5308,
      "Ġpeople": 5309,
      "WICK": 5310,
      "ĠWARWICK": 5311,
      "AST": 5312,
      "ach": 5313,
      "ds": 5314,
      "ix": 5315,
      "ä¸įæĢķ": 5316,
      "ä¸įè¿ľ": 5317,
      "éĤ£æĹ¥": 5318,
      "éĤ£åĽ½çİĭ": 5319,
      "ä½łåĢĴ": 5320,
      "å¤§çļĦ": 5321,
      "å¾ĹçŁ¥": 5322,
      "åľ¨ä»ĸ": 5323,
      "rer": 5324,
      "åĽŀå¯¨": 5325,
      "ä¸¤åı£": 5326,
      "ister": 5327,
      "åį´è¢«": 5328,
      "ç½ķ": 5329,
      "Ġche": 5330,
      "Ġchar": 5331,
      "çĽ¸åĬ©": 5332,
      "ĠAll": 5333,
      "èĢĮåħ¥": 5334,
      "èĢĮå·²": 5335,
      "çĤ³": 5336,
      "æĤ¦": 5337,
      "æħķ": 5338,
      "åºĶéģĵ": 5339,
      "ĠShall": 5340,
      "çĹķ": 5341,
      "çĻ½èĥľ": 5342,
      "åĲ´åħµ": 5343,
      "ç¤¼æĭľ": 5344,
      "ç»Ļä½ł": 5345,
      "hip": 5346,
      "ĠDo": 5347,
      "ä¼¤å¿ĥ": 5348,
      "åĽ´ä½ı": 5349,
      "Ġshow": 5350,
      "æĳĨå¼Ģ": 5351,
      "Ġconf": 5352,
      "åģıå°Ĩ": 5353,
      "çĩķéĿĴéģĵ": 5354,
      "çŃµå®´": 5355,
      "èĤļéĩĮ": 5356,
      "æªĢ": 5357,
      "åĽĽä¸ĭéĩĮ": 5358,
      "ged": 5359,
      "Ġå®Ŀçİī": 5360,
      "ä¸įèµ·": 5361,
      "åĲĴ": 5362,
      "ä¸Ģçīĩ": 5363,
      "æīĽ": 5364,
      "åıĪåı«": 5365,
      "åĩºåİ»äºĨ": 5366,
      "å¹º": 5367,
      "è¡Įäºĭ": 5368,
      "Ġbri": 5369,
      "çŁ¥ä¹ĭ": 5370,
      "åı¯ä¸įæĺ¯": 5371,
      "éĹ¨æĹĹ": 5372,
      "æĬĬä¸ª": 5373,
      "æīĭæī§": 5374,
      "æµĵ": 5375,
      "æŃ»æĪĺ": 5376,
      "éĤ£éĩĮæĿ¥çļĦ": 5377,
      "æĽ¹çľŁ": 5378,
      "æĪĳä»¬çļĦ": 5379,
      "æĪĲäºĨ": 5380,
      "æĪĲåĬŁ": 5381,
      "éĴ±ç²®": 5382,
      "æĿĥæĽ°": 5383,
      "æĽ¿ä½ł": 5384,
      "é¥¶ä½ł": 5385,
      "Ġhands": 5386,
      "è°ıæĽ°": 5387,
      "è±ªæĿ°": 5388,
      "HAM": 5389,
      "fort": 5390,
      "æĿı": 5391,
      "ä¸Ģè¿ŀ": 5392,
      "æĹ±": 5393,
      "ä½łå¿«": 5394,
      "è§ģæĪĳ": 5395,
      "ä¹ŁæĹł": 5396,
      "Ġmaster": 5397,
      "åıĪæĹł": 5398,
      "Ġwhy": 5399,
      "ä¸Ńæľī": 5400,
      "è¾Ł": 5401,
      "è°ħ": 5402,
      "è°Ľ": 5403,
      "Ġcause": 5404,
      "æ³¨": 5405,
      "éĹ®æĪĳ": 5406,
      "éĹ®åħ¶": 5407,
      "èµ°ä¸ĢéģŃ": 5408,
      "å¼łç¿¼": 5409,
      "æĬ¥ä¸İ": 5410,
      "åĸľéģĵ": 5411,
      "åį³æĹ¶": 5412,
      "å»ĸ": 5413,
      "æĳĺ": 5414,
      "åįĬä¸ª": 5415,
      "æķħæĦı": 5416,
      "è´¾æ¯įç¬ĳéģĵ": 5417,
      "éŃıä¸»": 5418,
      "ç»Ĩä½ľ": 5419,
      "ĠNurse": 5420,
      "ä¸įåı¯è½»": 5421,
      "èĵĿ": 5422,
      "çĽĺç¼ł": 5423,
      "è¢ģæľ¯": 5424,
      "æĸĻçĲĨ": 5425,
      "ç±į": 5426,
      "Ġjoy": 5427,
      "æªĲ": 5428,
      "åĳĪä¸Ĭ": 5429,
      "Ġimp": 5430,
      "LET": 5431,
      "ULET": 5432,
      "Ġå½ĵä¸ĭ": 5433,
      "ï¼ĮâĢľ": 5434,
      "æĿ¥æĹ¶": 5435,
      "çļĦå°ı": 5436,
      "èµĦ": 5437,
      "åİ»åıĸ": 5438,
      "æľīåĪĨ": 5439,
      "åıªçŃī": 5440,
      "Ġserv": 5441,
      "å°Ĩä»¤": 5442,
      "Ġmist": 5443,
      "åĪ°å¾Ĺ": 5444,
      "åĽŀè§ģ": 5445,
      "èĢģçĮª": 5446,
      "åīįåĨĽ": 5447,
      "åįģåħŃ": 5448,
      "çģĮ": 5449,
      "Ġnone": 5450,
      "Ġlaw": 5451,
      "éħ¸": 5452,
      "å¸Īå¸Ī": 5453,
      "ç§ī": 5454,
      "æ¸´": 5455,
      "èĢĮéĢĢ": 5456,
      "Ġgl": 5457,
      "æį·": 5458,
      "å¿ħå®ļ": 5459,
      "å¹³çĶŁ": 5460,
      "æĽ¹æ´ª": 5461,
      "çĸ®": 5462,
      "çĸ¯": 5463,
      "åĪĺçĴĭ": 5464,
      "åĶĲçİĭ": 5465,
      "ĠCAP": 5466,
      "ĠThey": 5467,
      "é¹ħ": 5468,
      "éŁ¦": 5469,
      "ä¼łæĹ¨": 5470,
      "Ġonce": 5471,
      "ä¹ĲåĴĮ": 5472,
      "ä¸īä¸ªäºº": 5473,
      "çĵĴ": 5474,
      "éģ£äºº": 5475,
      "åı¸é©¬æĺŃ": 5476,
      "ç¯ĩ": 5477,
      "Ġsaid": 5478,
      "ĠCAPULET": 5479,
      "äºĨå¤´": 5480,
      "ä¸ĢåĨĽ": 5481,
      "ä¸Ģå¸¦": 5482,
      "ä¸ĢåįĬ": 5483,
      "ä¸ĢçĽ´": 5484,
      "ä¸ĢæĿ¯": 5485,
      "æĿ¥ä¸İ": 5486,
      "æĿ¥çľĭ": 5487,
      "æĺ¯ä½ł": 5488,
      "å¿¿": 5489,
      "å¼¦": 5490,
      "ä¹ĭå¤ĸ": 5491,
      "ä¹ĭæ³ķ": 5492,
      "ä¹Łä¼¼": 5493,
      "å±¥": 5494,
      "å¤´çĽ®": 5495,
      "å½ķ": 5496,
      "èĢģå¨ĺ": 5497,
      "å¤ªçĽĳ": 5498,
      "éĺĻ": 5499,
      "åĸĺ": 5500,
      "ç½ĳ": 5501,
      "æłĩ": 5502,
      "å¼łéĿĴ": 5503,
      "æĿİè¡®": 5504,
      "æĿİå¸Īå¸Ī": 5505,
      "ä½¿èĢħ": 5506,
      "æŁı": 5507,
      "æŀĹå¦¹å¦¹": 5508,
      "Ġfort": 5509,
      "éĺµä¸Ń": 5510,
      "Ġevery": 5511,
      "æ²ĻåĴĮå°ļ": 5512,
      "éŁµ": 5513,
      "åħĦå¼Łä»¬": 5514,
      "æĹĹåı·": 5515,
      "åİŁæĿ¥è¿Ļ": 5516,
      "æİ¢åĲ¬": 5517,
      "å¹¸å¾Ĺ": 5518,
      "æºĲ": 5519,
      "å¤ıä¾¯æ¸Ĭ": 5520,
      "çŃµå¸Ń": 5521,
      "çĶĺå®ģ": 5522,
      "å¼ķä¸ĢåĨĽ": 5523,
      "è¾Ľèĭ¦": 5524,
      "å²«çĥŁ": 5525,
      "GE": 5526,
      "IL": 5527,
      "MIO": 5528,
      "èŃ": 5529,
      "ä¸įä¸ĭ": 5530,
      "åĲĨ": 5531,
      "éĤ¦": 5532,
      "å¥ĺ": 5533,
      "éĤ£éķ¿èĢģ": 5534,
      "ä½łèĭ¥": 5535,
      "åľ¨éĩĮéĿ¢": 5536,
      "å·į": 5537,
      "ä¹Łæ²¡æľī": 5538,
      "ä¹Łç½¢äºĨ": 5539,
      "æĭ¢": 5540,
      "é©»": 5541,
      "åĩºå®¶äºº": 5542,
      "ren": 5543,
      "åĨĽæ°ĳ": 5544,
      "ä¸ŃåİŁ": 5545,
      "Ġbod": 5546,
      "æĥ¶": 5547,
      "èĩªå¹¼": 5548,
      "å®ĿäºĮçĪ·": 5549,
      "äºĭæĥħ": 5550,
      "åĲİéĹ¨": 5551,
      "åĽĽæĽ´": 5552,
      "æĸ¹ä¸Ī": 5553,
      "æĢİæł·": 5554,
      "ä»İäºº": 5555,
      "ç¦½": 5556,
      "è®¡è¾ĥ": 5557,
      "çľ¼çĿĽ": 5558,
      "å®ŀåľ¨": 5559,
      "åĮħè¢±": 5560,
      "èĦ±èº«": 5561,
      "æ¼Ĩ": 5562,
      "ousin": 5563,
      "åİħåīį": 5564,
      "çŃĶåºĶçĿĢ": 5565,
      "Ġbring": 5566,
      "åŃŁè¾¾": 5567,
      "èĨĬ": 5568,
      "æİ©æĿĢ": 5569,
      "èķī": 5570,
      "èĽ®åħµ": 5571,
      "è¥Ħéĺ³": 5572,
      "RI": 5573,
      "bt": 5574,
      "ä¸Ģå½ª": 5575,
      "è¯µ": 5576,
      "äººçļĨ": 5577,
      "æĪĳèĭ¥": 5578,
      "æĪĳä¸İä½ł": 5579,
      "åıĪåĳ½": 5580,
      "å¤©æĻļ": 5581,
      "åį´æĿ¥": 5582,
      "æŃ£ä¸Ń": 5583,
      "Ġdou": 5584,
      "èĪĴ": 5585,
      "éĩĳåħī": 5586,
      "éĩĳæĺŁ": 5587,
      "åŃĻå®ī": 5588,
      "å¯¨æłħ": 5589,
      "éĢģä¸İ": 5590,
      "çŁ³åĭĩ": 5591,
      "å²Ĥåı¯": 5592,
      "çĮ´åŃĲ": 5593,
      "æ¤į": 5594,
      "è¯»ä¹¦": 5595,
      "å¯»æĢĿéģĵ": 5596,
      "KING": 5597,
      "eed": 5598,
      "éĬ": 5599,
      "ä¸ĢæŀĿ": 5600,
      "æĿ¥æīĵ": 5601,
      "äººçī©": 5602,
      "åİ»è¯·": 5603,
      "è¯´ç½¢": 5604,
      "åıĪæģĲ": 5605,
      "ä¾¿åı¯": 5606,
      "éĿ´": 5607,
      "å½¹": 5608,
      "å¥½å¤Ħ": 5609,
      "å®Ŀåīĳ": 5610,
      "å¤ªåĲİ": 5611,
      "ä¸ºåħĪéĶĭ": 5612,
      "åĢ¦": 5613,
      "è´¾åħ°": 5614,
      "Ġpass": 5615,
      "æł¼": 5616,
      "çĶŁçļĦ": 5617,
      "çĶŁæĹ¥": 5618,
      "äºİæŃ¤": 5619,
      "èĩ³ä»Ĭ": 5620,
      "åŃĻæĸ°": 5621,
      "ates": 5622,
      "ä½¿ä¸ª": 5623,
      "åĿĲåľ°": 5624,
      "é¥¼": 5625,
      "éĤ£éĩĮåİ»äºĨ": 5626,
      "é«ĺå£°": 5627,
      "èĬ±æŀľ": 5628,
      "ç¼ĸ": 5629,
      "ĠBUC": 5630,
      "æķ°çĻ¾": 5631,
      "æĽ´æĹł": 5632,
      "çªĥ": 5633,
      "éķ¿èĢģéģĵ": 5634,
      "åĨĻäºĨ": 5635,
      "åĨĻçĿĢ": 5636,
      "åĲķèĴĻ": 5637,
      "ç§°è°¢": 5638,
      "çĨ¬": 5639,
      "å²¸ä¸Ĭ": 5640,
      "å°¤äºĮå§Ĳ": 5641,
      "æĹģè¾¹": 5642,
      "çī¢éĩĮ": 5643,
      "æ¡Įä¸Ĭ": 5644,
      "åĲĬæ¡¥": 5645,
      "æ§Ľ": 5646,
      "Ġplease": 5647,
      "UTUS": 5648,
      "èº¬èº«": 5649,
      "ĠBRUTUS": 5650,
      "KINGHAM": 5651,
      "ĠBUCKINGHAM": 5652,
      "BRO": 5653,
      "iet": 5654,
      "lt": 5655,
      "äº§": 5656,
      "å¤¥": 5657,
      "äºĨèĦ¸": 5658,
      "ä¸įçĽ¸": 5659,
      "ä¸įåħį": 5660,
      "ä¸Ģä¸Ī": 5661,
      "æĪĳä¸Ķ": 5662,
      "æĪĳä¸¤ä¸ª": 5663,
      "ä»ĸéĤ£": 5664,
      "åľ¨è¿Ļ": 5665,
      "åľ¨ä¸Ģå¤Ħ": 5666,
      "ä¸ĭæĭľ": 5667,
      "å··": 5668,
      "åĩºä¸Ģä¸ª": 5669,
      "ä¸īä¸ĩ": 5670,
      "æĥł": 5671,
      "éĥ½æľī": 5672,
      "çĪ¹": 5673,
      "æİł": 5674,
      "ĠTRAN": 5675,
      "æĿĢåĪ°": 5676,
      "å¾Ģè¥¿å¤©": 5677,
      "ird": 5678,
      "ĠBOL": 5679,
      "å¥³äºº": 5680,
      "çİĦå¥ĺ": 5681,
      "ĠFrom": 5682,
      "Ġlight": 5683,
      "è¿ľè¿ĳ": 5684,
      "å®ĿéĴĹç¬ĳéģĵ": 5685,
      "çħ®": 5686,
      "INGBRO": 5687,
      "æĽ¿ä»ĸ": 5688,
      "ESS": 5689,
      "çĶ·åŃĲ": 5690,
      "éĤ£äººéģĵ": 5691,
      "éĻĨéĢĬ": 5692,
      "ç¦Ģéģĵ": 5693,
      "æľīè¯Ĺä¸ºè¯ģ": 5694,
      "ĠTRANIO": 5695,
      "ĠBOLINGBRO": 5696,
      "ĠBOLINGBROKE": 5697,
      "eel": 5698,
      "vost": 5699,
      "ä¸įå½ĵ": 5700,
      "è¯©": 5701,
      "åįľ": 5702,
      "Ġtears": 5703,
      "æīĪ": 5704,
      "åĩ¹": 5705,
      "æľīçĲĨ": 5706,
      "å¤§äºĨ": 5707,
      "ä¹ĭåŃĲ": 5708,
      "ä¹ĭç±»": 5709,
      "æĸĮ": 5710,
      "åıĪè¢«": 5711,
      "åĩºéĺµ": 5712,
      "Ġwo": 5713,
      "ä¸īåĽĽ": 5714,
      "Ġbes": 5715,
      "æ²Ľ": 5716,
      "å¿ĥæĥĬ": 5717,
      "æģį": 5718,
      "Ġnat": 5719,
      "Ġthr": 5720,
      "æĵİ": 5721,
      "äºİç¦ģ": 5722,
      "å·²æľī": 5723,
      "åĲĥçļĦ": 5724,
      "èĦĤ": 5725,
      "åĥ§äºº": 5726,
      "å¿Ļå¿Ļ": 5727,
      "é«ĺåħ´": 5728,
      "æľªåıĬ": 5729,
      "ç¼º": 5730,
      "æĸĩçĤ³": 5731,
      "éļ¾ä»¥": 5732,
      "åįĥä¸ĩ": 5733,
      "æĽ´åħ¼": 5734,
      "åĭī": 5735,
      "é»Ħæĺı": 5736,
      "è¡£çĶ²": 5737,
      "ä¼ıäºİ": 5738,
      "åĬĿéģĵ": 5739,
      "åĲķæĸ¹": 5740,
      "è®©ä»ĸ": 5741,
      "æĹ¨æĦı": 5742,
      "æĩ¿æĽ°": 5743,
      "åĶ¬å¾Ĺ": 5744,
      "è¾½åĽ½": 5745,
      "åºĻéĩĮ": 5746,
      "Ġwhose": 5747,
      "æĺĶæĹ¥": 5748,
      "Ġroyal": 5749,
      "çĭĤé£İ": 5750,
      "Ġpresent": 5751,
      "swer": 5752,
      "cle": 5753,
      "mb": 5754,
      "çļĪ": 5755,
      "ä¸ªä¸ª": 5756,
      "ä¼¶": 5757,
      "Ġsince": 5758,
      "åĨĽåīį": 5759,
      "å¤´çļĦ": 5760,
      "Ġboy": 5761,
      "äºĮåĵ¥": 5762,
      "ä½ķè¶³": 5763,
      "åĸĩ": 5764,
      "äºĭæĿ¥": 5765,
      "åı¯å·§": 5766,
      "ä¿ĥ": 5767,
      "its": 5768,
      "Ġcame": 5769,
      "æīĵä¸ª": 5770,
      "éĴ§": 5771,
      "ary": 5772,
      "å·²è¢«": 5773,
      "åĲĥèĮ¶": 5774,
      "ä¸»åŃĲ": 5775,
      "åĵ¥åķĬ": 5776,
      "çĻ¾å®ĺ": 5777,
      "è£´": 5778,
      "ĠOur": 5779,
      "ä¾ĿæĹ§": 5780,
      "è·Łéļı": 5781,
      "éģĩè§ģ": 5782,
      "Ġjust": 5783,
      "éĺ®å°ıäºĮ": 5784,
      "èĮĹçĥŁ": 5785,
      "lf": 5786,
      "ock": 5787,
      "vy": 5788,
      "Ġåı²è¿Ľ": 5789,
      "ä¸įé¡»": 5790,
      "ä¸įå¿į": 5791,
      "è¯º": 5792,
      "æľĭ": 5793,
      "æĿ¥å¾Ģ": 5794,
      "çļĦå¿ĥ": 5795,
      "ä½łå¦Ĥä½ķ": 5796,
      "è§ģæĺ¯": 5797,
      "ä¹ĭåĬŁ": 5798,
      "ä¹ĭçŃĸ": 5799,
      "åľ¨å®¶éĩĮ": 5800,
      "çŁ¢": 5801,
      "çŃĽ": 5802,
      "ory": 5803,
      "å°ıåŃĲ": 5804,
      "æ¯ģ": 5805,
      "Ġfull": 5806,
      "å±±åīį": 5807,
      "éĹ¨ä¸ĭ": 5808,
      "ç¥İ": 5809,
      "éĹ®äºĨ": 5810,
      "èº«ç©¿": 5811,
      "Ġpardon": 5812,
      "çĽ¸è¿İ": 5813,
      "Ġheard": 5814,
      "æĿİåĤķ": 5815,
      "éĵł": 5816,
      "åĨįåİ»": 5817,
      "éĤ£éĩĮæľī": 5818,
      "æĭ¿ä»ĸ": 5819,
      "åĲ¾ä»Ĭ": 5820,
      "æĢ¥å¿Ļ": 5821,
      "èħ®": 5822,
      "Ġunder": 5823,
      "æķĳäºĨ": 5824,
      "æķĳå¾Ĺ": 5825,
      "çº¢æĹĹ": 5826,
      "Ġdev": 5827,
      "roke": 5828,
      "åĪĻä¸ª": 5829,
      "å¤±äºĨ": 5830,
      "å²Ĥæľī": 5831,
      "ç¥ĸå¸Ī": 5832,
      "æłĳä¸Ĭ": 5833,
      "éģ£ä½¿": 5834,
      "åĹĶ": 5835,
      "åĹŁ": 5836,
      "å±¯åħµ": 5837,
      "æıŃè°Ľ": 5838,
      "Ġafter": 5839,
      "Ġwrong": 5840,
      "ç¹ĩ": 5841,
      "GAR": 5842,
      "NE": 5843,
      "pose": 5844,
      "çµ": 5845,
      "ä¸įæīį": 5846,
      "å°¼": 5847,
      "æĪĳå¦Ĥä»Ĭ": 5848,
      "å¿Į": 5849,
      "å¤§èĥĨ": 5850,
      "ä¾¿çŁ¥": 5851,
      "å¤´åĦ¿": 5852,
      "æĶĢ": 5853,
      "å¤©å¸Ī": 5854,
      "çľĭå®Ī": 5855,
      "æİ³": 5856,
      "éĹ¨ç¥ŀ": 5857,
      "Ġland": 5858,
      "çĶŁæĵĴ": 5859,
      "éªĹ": 5860,
      "åĨħæľī": 5861,
      "Ġhapp": 5862,
      "åĩłåı¥": 5863,
      "æĭ¿åĩº": 5864,
      "æĪĺèĪ¹": 5865,
      "æĽ¹ä¸ķ": 5866,
      "åĩºæĿ¥äºĨ": 5867,
      "æĶ¶åħµ": 5868,
      "æŀľæĺ¯": 5869,
      "æĢİä¹Īè¯´": 5870,
      "ç¾Į": 5871,
      "çľ¼æ³ª": 5872,
      "åĲĪæİĮ": 5873,
      "çĳ¶": 5874,
      "å¸¸è¨Ģéģĵ": 5875,
      "å®«ä¸Ń": 5876,
      "ä½Ľç¥ĸ": 5877,
      "å¾ĦåĪ°": 5878,
      "æŁ´å¤§å®ĺäºº": 5879,
      "æ¹ĺèİ²": 5880,
      "çº¦æľī": 5881,
      "åı¶æ¸ħ": 5882,
      "èĨĿ": 5883,
      "Ġplace": 5884,
      "æ¨Ĭçĳŀ": 5885,
      "éª¤é©¬": 5886,
      "å©¶åŃĲ": 5887,
      "ĠMARGAR": 5888,
      "ĠMARGARET": 5889,
      "ATH": 5890,
      "è¿Ķ": 5891,
      "ä¸Ģå¼ł": 5892,
      "æĿ¥è¯´": 5893,
      "åįı": 5894,
      "æĪĳä»Ĭ": 5895,
      "éĤ£å©ĨåŃĲ": 5896,
      "è¿Ļä»¶äºĭ": 5897,
      "Ġmis": 5898,
      "ä¾¿åĽŀ": 5899,
      "å¤´æĪ´": 5900,
      "æŀ£": 5901,
      "å¤©ä¸Ĭ": 5902,
      "è¦ģæīĵ": 5903,
      "éĹ¨åı£": 5904,
      "èº¯": 5905,
      "æĺİåħ¬": 5906,
      "Ġlast": 5907,
      "ens": 5908,
      "éĴĵ": 5909,
      "è¡ĮèĢħéĹ»è¨Ģ": 5910,
      "çĶŁæŃ»": 5911,
      "æ¸Ń": 5912,
      "åĪĨæĭ¨": 5913,
      "å®īèº«": 5914,
      "æĹ©èµ·": 5915,
      "åĲĮåİ»": 5916,
      "æĢªçī©": 5917,
      "Ġere": 5918,
      "æķĳåºĶ": 5919,
      "èµ·æĿ¥äºĨ": 5920,
      "Ġstate": 5921,
      "å©Ĩå¨ĺ": 5922,
      "ç¢°": 5923,
      "å¦ĤæŃ¤å¦ĤæŃ¤": 5924,
      "é¹°": 5925,
      "çĿ¡è§ī": 5926,
      "ĠKing": 5927,
      "å¡«": 5928,
      "è¾½åħµ": 5929,
      "å°ıä¸«å¤´åŃĲ": 5930,
      "AMIL": 5931,
      "æĢ¡çº¢": 5932,
      "sand": 5933,
      "å¶": 5934,
      "å®Ľ": 5935,
      "åĲĹ": 5936,
      "å¤§å¼Ģ": 5937,
      "å¤§éľĩ": 5938,
      "ä¹ĭæĥħ": 5939,
      "ä¹ĭéĻħ": 5940,
      "Ġsorrow": 5941,
      "ä¾¿æľī": 5942,
      "éĥ½è¦ģ": 5943,
      "èĢģæ¯į": 5944,
      "å¤ªçĪ·": 5945,
      "å¤ªå¹³": 5946,
      "æĹłè¯Ŀ": 5947,
      "Ġcare": 5948,
      "èĻĶ": 5949,
      "éħĮ": 5950,
      "åħ¥æľĿ": 5951,
      "å¼łèĭŀ": 5952,
      "åĽĽå°Ĩ": 5953,
      "èĢĮä¸į": 5954,
      "äºİé©¬ä¸ĭ": 5955,
      "æĸ¹æ¬²": 5956,
      "ä¸Ķä¼ĳ": 5957,
      "æ·ĭ": 5958,
      "åĢĴä¹Ł": 5959,
      "Ġmeet": 5960,
      "æĴº": 5961,
      "é»ĦæĸĩçĤ³": 5962,
      "Ġkill": 5963,
      "åĲ¬äºĨè¿Ļè¯Ŀ": 5964,
      "æ´ŀä¸Ń": 5965,
      "æ±Ĥç»ı": 5966,
      "ç½ĹçľŁäºº": 5967,
      "ä¸ĭé©¬æĿ¥": 5968,
      "åĪĹä½į": 5969,
      "åĪºåı²": 5970,
      "Ġhold": 5971,
      "å°¸é¦ĸ": 5972,
      "ç½®éħĴ": 5973,
      "æ¯ķç«Łä¸įçŁ¥": 5974,
      "éĬ®": 5975,
      "\"ï¼İ": 5976,
      "cent": 5977,
      "åı¨": 5978,
      "ä¸įä½Ĩ": 5979,
      "æĿ¥æĬ¥": 5980,
      "ä½łçŃī": 5981,
      "ä¼ĺ": 5982,
      "åľ¨åīį": 5983,
      "èĩĬ": 5984,
      "çĽŁ": 5985,
      "åıĪæ²¡": 5986,
      "å¹»": 5987,
      "èĢģå¦ĸ": 5988,
      "ition": 5989,
      "æĹłåı¯": 5990,
      "æŃ£è¯´": 5991,
      "æ±Łè¾¹": 5992,
      "å½ĵæĻļ": 5993,
      "èĭ¥è¯´": 5994,
      "èĤ¥": 5995,
      "èĩ³æĻļ": 5996,
      "è¥¿åĮĹ": 5997,
      "æŁĦ": 5998,
      "é£İæµģ": 5999,
      "ç¼¨": 6000,
      "æĢİä¹Īå°±": 6001,
      "èĥľè´¥": 6002,
      "Ġthousand": 6003,
      "å¸ĥæĽ°": 6004,
      "esty": 6005,
      "åı²æ¹ĺäºĳ": 6006,
      "å¿ĥä¸ŃæļĹ": 6007,
      "ORD": 6008,
      "è¡Ĺä¸Ĭ": 6009,
      "çĹĽåĵŃ": 6010,
      "èĬ¦èĭĩ": 6011,
      "ç°ĩæĭ¥": 6012,
      "åĴĴè¯Ń": 6013,
      "Ġeye": 6014,
      "ĠANGE": 6015,
      "ĠGRE": 6016,
      "èĢģèĢħéģĵ": 6017,
      "Ġwhom": 6018,
      "Ġhelp": 6019,
      "çµ®": 6020,
      "ĠANGELO": 6021,
      "ãĤ": 6022,
      "ä¸½": 6023,
      "è¿¤": 6024,
      "ä¸Ģé¢Ĩ": 6025,
      "ä¸Ģä¼ļ": 6026,
      "æĿ¥åıĸ": 6027,
      "çļĦéĤ£": 6028,
      "çļĦåĴĮå°ļ": 6029,
      "æĺ¯æĹ¥": 6030,
      "åĩĽ": 6031,
      "è¯´äºĨä¸Ģéģį": 6032,
      "è¿Ļä½į": 6033,
      "çĶµ": 6034,
      "ä¸ĭæ³ª": 6035,
      "çĿĢæīĭ": 6036,
      "ä¾¿æĭľ": 6037,
      "ä¾¿åĲĳ": 6038,
      "çŃ¹": 6039,
      "æŃ¤è®¡": 6040,
      "æĥŃ": 6041,
      "äºĮéĥİ": 6042,
      "å¤©åħµ": 6043,
      "Ġfal": 6044,
      "çŃīä»ĸ": 6045,
      "èºº": 6046,
      "Ġless": 6047,
      "éĴµ": 6048,
      "æīĭèµ·": 6049,
      "è½©": 6050,
      "å·²äºĨ": 6051,
      "æµ©": 6052,
      "å£°éŁ³": 6053,
      "åħ¶æķ°": 6054,
      "æĶ¾èµ·": 6055,
      "åįĬæĻĮ": 6056,
      "åĬ¨éĿĻ": 6057,
      "èĮ«": 6058,
      "æģ©çĽ¸": 6059,
      "æĿ¡è·¯": 6060,
      "è·ŁäºĨ": 6061,
      "ARINA": 6062,
      "åħ¨æĹł": 6063,
      "ĠEng": 6064,
      "ç½ĹåĪ¹": 6065,
      "Ġanswer": 6066,
      "æķ´é¡¿": 6067,
      "arence": 6068,
      "åĹ³": 6069,
      "éĶĻäºĨ": 6070,
      "åºŀç»Ł": 6071,
      "ä¾ĦåĦ¿": 6072,
      "Ġfollow": 6073,
      "åĳµåĳµ": 6074,
      "èº«ä¸Ģåıĺ": 6075,
      "æŀĹä¹ĭåŃĿå®¶çļĦ": 6076,
      "SC": 6077,
      "éĦ": 6078,
      "ä½ĳ": 6079,
      "ä¸Ģéģĵ": 6080,
      "æĿ¥æĪĳ": 6081,
      "äººéģĵ": 6082,
      "åĪĥ": 6083,
      "åĨĮ": 6084,
      "éĤ£å¦ĸ": 6085,
      "å¼¯": 6086,
      "å¤§å¥¶å¥¶": 6087,
      "å°Ĩä»ĸ": 6088,
      "åĩºåħ¥": 6089,
      "Ġbus": 6090,
      "ä½ķä¹Ł": 6091,
      "Ġfar": 6092,
      "Ġfool": 6093,
      "èºģ": 6094,
      "æŃ£å¥½": 6095,
      "Ġch": 6096,
      "Ġhither": 6097,
      "åħ¬æĸĩ": 6098,
      "Ġpat": 6099,
      "åŁİåĨħ": 6100,
      "æ¸¯": 6101,
      "å¤ļæľī": 6102,
      "èĦĬ": 6103,
      "çķı": 6104,
      "å¼ķäºĨ": 6105,
      "æĹ©æĹ©": 6106,
      "ceive": 6107,
      "irt": 6108,
      "éĢģåĪ°": 6109,
      "ä¸ĩæľĽ": 6110,
      "æĭľäºĨ": 6111,
      "ĠSh": 6112,
      "éļ¾å¾Ĺ": 6113,
      "Ġweep": 6114,
      "æĴ®": 6115,
      "åĩ¤å§Ĳç¬ĳéģĵ": 6116,
      "ä½Ĩæľī": 6117,
      "çªľ": 6118,
      "æ´ŀåı£": 6119,
      "Ġshame": 6120,
      "æ®¿ä¸ĭ": 6121,
      "åħ´åħµ": 6122,
      "Ġsun": 6123,
      "ĠKATH": 6124,
      "Ġåį´è¯´éĤ£": 6125,
      "selves": 6126,
      "åĪļæīį": 6127,
      "ä¸įåľ¨å®¶": 6128,
      "éĥŃçĽĽ": 6129,
      "æĥŁæľī": 6130,
      "cius": 6131,
      "Ġenem": 6132,
      "ĠClarence": 6133,
      "Ġabout": 6134,
      "éĺ¶ä¸ĭ": 6135,
      "***": 6136,
      "ĠKATHARINA": 6137,
      "iol": 6138,
      "Ġåıªè§ģ": 6139,
      "äºĨæľ¬": 6140,
      "æĪ®": 6141,
      "ä¸Ģå°Ĩ": 6142,
      "ä¸ĢåıĮ": 6143,
      "æŃĨ": 6144,
      "æī£": 6145,
      "æľīå¤ļå°ĳ": 6146,
      "ä»ĸåģļ": 6147,
      "å¤§éĹ¹": 6148,
      "ä¼ª": 6149,
      "ä¹Łä¸įçŁ¥": 6150,
      "è´¨": 6151,
      "åĦ¿éģĵ": 6152,
      "è¡Įèĩ³": 6153,
      "ä¸īå¨ĺ": 6154,
      "åĽŀèĩ³": 6155,
      "äºĮä¸ĩ": 6156,
      "äºĭä¸į": 6157,
      "ä¸ºåı·": 6158,
      "ä¼Ĺå¤ļ": 6159,
      "æīĵçĿĢ": 6160,
      "èĢĮè¿Ľ": 6161,
      "äºİè·¯": 6162,
      "åĽłè¯´éģĵ": 6163,
      "ä½¿ä¸įå¾Ĺ": 6164,
      "é¥°": 6165,
      "å®ļåĽ½": 6166,
      "å©ļ": 6167,
      "ä¹Łä¸įçĶ¨": 6168,
      "åįĹæĹł": 6169,
      "åħ«æĪĴç¬ĳéģĵ": 6170,
      "æļ®": 6171,
      "ç»ıè¿ĩ": 6172,
      "urde": 6173,
      "æĢĴæĽ°": 6174,
      "æ±Ĥæķĳ": 6175,
      "çħİ": 6176,
      "è½¦ä»Ĺ": 6177,
      "å²ĤçŁ¥": 6178,
      "åį¢åħĪéĶĭ": 6179,
      "Ġfall": 6180,
      "çĸĳæĥĳ": 6181,
      "èĻļå®ŀ": 6182,
      "æĳĩèº«ä¸Ģåıĺ": 6183,
      "é¡¶ä¸Ĭ": 6184,
      "èĶ¡äº¬": 6185,
      "ç°¿": 6186,
      "éĥŃæ·®": 6187,
      "éķĩå®Ī": 6188,
      "è²Ĥ": 6189,
      "éĨīäºĨ": 6190,
      "åĩ»ä¹ĭ": 6191,
      "æł¡å°ī": 6192,
      "æ¨ĬåŁİ": 6193,
      "Ġgentleman": 6194,
      "ĠMarcius": 6195,
      "Ġmaid": 6196,
      ":\"": 6197,
      "day": 6198,
      "ï¼ĮâĢĿ": 6199,
      "ä½©": 6200,
      "ä¸įä¸Ń": 6201,
      "æĺ¯éĤ£": 6202,
      "åİ»è·¯": 6203,
      "å¤§éĺŁ": 6204,
      "è§ģå®Ŀçİī": 6205,
      "åĩºè¿İ": 6206,
      "ä¾¿è¡Į": 6207,
      "åĪ°éĤ£éĩĮ": 6208,
      "çĪª": 6209,
      "ä¿¯": 6210,
      "åį´ä¸įæĺ¯": 6211,
      "æĹłæīĢ": 6212,
      "åįģä½Ļ": 6213,
      "Ġob": 6214,
      "è¿ĽäºĨ": 6215,
      "åħĪè¡Į": 6216,
      "è¨Ģæľª": 6217,
      "æĿİå¿ł": 6218,
      "ç©´": 6219,
      "å®īéģĵ": 6220,
      "æŃ¦å£«": 6221,
      "åĲįåĶ¤": 6222,
      "æı´": 6223,
      "ç¿Ķ": 6224,
      "é»Ħéĩĳ": 6225,
      "æ³ķå¸Ī": 6226,
      "éģĤä»¤": 6227,
      "æĹ¢æľī": 6228,
      "é»Ľçİīç¬ĳéģĵ": 6229,
      "asure": 6230,
      "æ»¡éĿ¢": 6231,
      "åĤ»": 6232,
      "èĢģå¤ªå¤ªçļĦ": 6233,
      "æĪĸèĢħ": 6234,
      "æ¨ªç«ĸ": 6235,
      "éĽ·éŁ³": 6236,
      "å½©äºĳ": 6237,
      "å®£èµŀ": 6238,
      "éŁ©æ»Ķ": 6239,
      "Ġinto": 6240,
      "ä¸Ķçľĭä¸ĭæĸĩåĪĨè§£": 6241,
      "åĵªåĲĴ": 6242,
      "æ½ĩæ¹ĺ": 6243,
      "å»ĸåĮĸ": 6244,
      "æĢ¡çº¢éĻ¢": 6245,
      "é¤": 6246,
      "ä¸¸": 6247,
      "ä¸Ģèº«": 6248,
      "ä¸ĢåĲĳ": 6249,
      "æĹŃ": 6250,
      "æĿ¥æŃ¤": 6251,
      "åĩı": 6252,
      "æľīåĩłä¸ª": 6253,
      "ä¹ŁæĽ¾": 6254,
      "çŁ©": 6255,
      "å°ĨéĤ£": 6256,
      "çĿĢå®ŀ": 6257,
      "Ġmakes": 6258,
      "æĹ¥åĲİ": 6259,
      "å¥½äºº": 6260,
      "ä¸¤å®¶": 6261,
      "äºĮåŃĹ": 6262,
      "èĢģç¥ĸå®Ĺ": 6263,
      "ä»Ĭå·²": 6264,
      "Ġcousin": 6265,
      "éħĴèĤī": 6266,
      "ç¥ŀåħµ": 6267,
      "éĹ»ä¹ĭ": 6268,
      "é£ŀå¥Ķ": 6269,
      "å°½æĺ¯": 6270,
      "è£Ĥ": 6271,
      "ä¹īå£«": 6272,
      "éº¦": 6273,
      "ĠESC": 6274,
      "æįīäºĨ": 6275,
      "æ¼±": 6276,
      "ç»ŁåĪ¶": 6277,
      "çĥ§äºĨ": 6278,
      "æĿ¯éħĴ": 6279,
      "åŀ£": 6280,
      "Ġhate": 6281,
      "æľĢå¥½": 6282,
      "æľºä¼ļ": 6283,
      "Ġgracious": 6284,
      "ĠUn": 6285,
      "ĠUp": 6286,
      "åĭ¾å½ĵ": 6287,
      "Ġcoun": 6288,
      "çĺ¦": 6289,
      "æħ¢æħ¢çļĦ": 6290,
      "Ġcourt": 6291,
      "æ¬§é¹ı": 6292,
      "ALUS": 6293,
      "Ġgrief": 6294,
      "ĠESCALUS": 6295,
      "air": 6296,
      "ject": 6297,
      "åı®": 6298,
      "è¿°": 6299,
      "ä¸įå®ļ": 6300,
      "ä¸įåĩºæĿ¥": 6301,
      "ä»ĸå®¶": 6302,
      "æĢĶ": 6303,
      "å¾ĹæĪĳ": 6304,
      "å¾Ĺä½ı": 6305,
      "åŃĲæķ¬": 6306,
      "ç»½": 6307,
      "å¯¼": 6308,
      "å¤´ä¸Ģ": 6309,
      "å¦ĤæĦı": 6310,
      "åį´æĬĬ": 6311,
      "åĲİåłĤ": 6312,
      "çīĴ": 6313,
      "èĬŃ": 6314,
      "æīĭèĦļ": 6315,
      "è¿ĺæĪĳ": 6316,
      "ĠAl": 6317,
      "åĽĽæĸ¹": 6318,
      "å·²çŁ¥": 6319,
      "å®ĿçİīçļĦ": 6320,
      "çĲ¦": 6321,
      "é¦Ģ": 6322,
      "éĶĢ": 6323,
      "çģ«æĿ¥": 6324,
      "åį³ä¾¿": 6325,
      "æĽ¹åĨĽ": 6326,
      "imes": 6327,
      "å¿½åĲ¬å¾Ĺ": 6328,
      "ç¤¼éģĵ": 6329,
      "Ġstri": 6330,
      "åĸĿéĩĩ": 6331,
      "æħĮå¾Ĺ": 6332,
      "çļĩåĲİ": 6333,
      "çĽ®ä»Ĭ": 6334,
      "é²ģè¾¾": 6335,
      "å¨ģé£İ": 6336,
      "æĭ¨é©¬": 6337,
      "å¯ºéĩĮ": 6338,
      "æĭīçĿĢ": 6339,
      "æĪªä½ı": 6340,
      "éĤ»èĪį": 6341,
      "Ġwoman": 6342,
      "iv": 6343,
      "ove": 6344,
      "ãģ": 6345,
      "åħĨ": 6346,
      "å®ł": 6347,
      "æľ«": 6348,
      "æľŃ": 6349,
      "Ġturn": 6350,
      "æĪĳåľ¨": 6351,
      "ä¸ªå¤§": 6352,
      "åİ»å¯»": 6353,
      "ä½łéģĵ": 6354,
      "ä¹ĭä¼Ĺ": 6355,
      "ä¸ĭçļĦ": 6356,
      "åıĪä¸įæķ¢": 6357,
      "è¡ĮäºĨ": 6358,
      "æĥ¨": 6359,
      "äºĮå¤«äºº": 6360,
      "èĩªæĺ¯": 6361,
      "æ²§": 6362,
      "å¤ªä¿Ŀ": 6363,
      "çº²": 6364,
      "ä¼Ĺç¥ŀ": 6365,
      "çĦĻ": 6366,
      "çĽ¸äº¤": 6367,
      "ä»¥æĿ¥": 6368,
      "æłª": 6369,
      "å¼łé²ģ": 6370,
      "æĿİåħ¸": 6371,
      "åĽłåıĪ": 6372,
      "æĿĢå¾Ĺ": 6373,
      "ä½¿åĲĽ": 6374,
      "éĶº": 6375,
      "æĶ¾çĿĢ": 6376,
      "é«ĺå±±": 6377,
      "æıĸ": 6378,
      "èĹķ": 6379,
      "æ±īå®¤": 6380,
      "ĠHath": 6381,
      "åįĬå¤ľ": 6382,
      "åĲ´ä¾¯": 6383,
      "åĶĲæľĿ": 6384,
      "èĮħ": 6385,
      "Ġstre": 6386,
      "çŀ»": 6387,
      "ä¼ĳå¾Ĺ": 6388,
      "æıĲäºĨ": 6389,
      "ç¨·": 6390,
      "ç«Łæĺ¯": 6391,
      "æŃĩäºĨ": 6392,
      "å¹³åĦ¿éģĵ": 6393,
      "Ġcomfort": 6394,
      "çĶ·äºº": 6395,
      "Ġworth": 6396,
      "ç«Ļèµ·æĿ¥": 6397,
      "ç¾¤èĩ£": 6398,
      "ild": 6399,
      "ling": 6400,
      "Ġè¡ĮèĢħéģĵ": 6401,
      "ä¸įèĭ¥": 6402,
      "ä¸įæ¶Ī": 6403,
      "è¯ŀ": 6404,
      "åį¸": 6405,
      "Ġtalk": 6406,
      "èĢ»": 6407,
      "ä½łåĪ«": 6408,
      "ä¹ĭæīĢ": 6409,
      "ä¹ĭå£«": 6410,
      "åľ¨åĨħ": 6411,
      "å·¨": 6412,
      "çĽĤ": 6413,
      "åĩºèº«": 6414,
      "Ġwilt": 6415,
      "å±Ģ": 6416,
      "åīģ": 6417,
      "åĬª": 6418,
      "å¤´éĩĮ": 6419,
      "åĽŀè¯Ŀ": 6420,
      "å¥½å¥½çļĦ": 6421,
      "èĢģæ±ī": 6422,
      "æİĺ": 6423,
      "ons": 6424,
      "ç«Ń": 6425,
      "æĬĬä½ł": 6426,
      "åĿ¤": 6427,
      "èº«ä½ĵ": 6428,
      "Ġhum": 6429,
      "æį±": 6430,
      "Ġbed": 6431,
      "åĲĦæľī": 6432,
      "åħ³äºĨ": 6433,
      "åħ³å¹³": 6434,
      "äºĨä¸Ģå¤ľ": 6435,
      "éĢģåİ»": 6436,
      "çĥĺ": 6437,
      "å£«åħµ": 6438,
      "è®¡çŃĸ": 6439,
      "æĽ´ä¸į": 6440,
      "åħ«æĪĴæ²Ļåĥ§": 6441,
      "alt": 6442,
      "Ġdost": 6443,
      "ĠDUCH": 6444,
      "ĠDuke": 6445,
      "èĲ¥ä¸Ń": 6446,
      "å¤§åĸľéģĵ": 6447,
      "æĴŀè§ģ": 6448,
      "ices": 6449,
      "å¤§æĥĬæĽ°": 6450,
      "å´©": 6451,
      "åĹ½": 6452,
      "ä»įæĹ§": 6453,
      "æ¡ĥèĬ±": 6454,
      "èµĸå¤§": 6455,
      "deed": 6456,
      "ä¼¸æīĭ": 6457,
      "åĨĢå·ŀ": 6458,
      "Ġsleep": 6459,
      "èģªæĺİ": 6460,
      "éĥĵåŁİåİ¿": 6461,
      "ä¸Ģä¸ĪéĿĴ": 6462,
      "urderer": 6463,
      "ĠDUCHESS": 6464,
      "pher": 6465,
      "ç¶": 6466,
      "çļĦéģĵ": 6467,
      "è§¦": 6468,
      "åĨľ": 6469,
      "åĩ³": 6470,
      "ä»ĸèĭ¥": 6471,
      "ä¼į": 6472,
      "è¿Ļä¸Ģä¸ª": 6473,
      "ount": 6474,
      "åıªå½ĵ": 6475,
      "åĦ¿æĿ¥": 6476,
      "å½§": 6477,
      "åĽŀé¡¾": 6478,
      "åĵ¼": 6479,
      "è¾Ĥ": 6480,
      "æ²¾": 6481,
      "å®Ŀå§Ĳå§Ĳ": 6482,
      "itor": 6483,
      "æĬĬéĹ¨": 6484,
      "è¿ĩçļĦ": 6485,
      "åĿŁ": 6486,
      "æīĵä»ĸ": 6487,
      "Ġover": 6488,
      "é»İ": 6489,
      "æµ´": 6490,
      "äºĶåĦ¿": 6491,
      "äºĶä¸ĩ": 6492,
      "Ġbel": 6493,
      "åı£åĨħ": 6494,
      "è¥¿åĩī": 6495,
      "æĤł": 6496,
      "ä¸ĩéĩĮ": 6497,
      "æĭľè§ģ": 6498,
      "å£«éļĲ": 6499,
      "å®ĪåŁİ": 6500,
      "æĪ¿éĹ¨": 6501,
      "è´¼å°Ĩ": 6502,
      "åłķ": 6503,
      "åĸĿå£°": 6504,
      "è±Ĩ": 6505,
      "éĢĢåħµ": 6506,
      "åĵŃéģĵ": 6507,
      "é¡»æĺ¯": 6508,
      "æĬķå¥Ķ": 6509,
      "èĩªå·±çļĦ": 6510,
      "èµıèµĲ": 6511,
      "ERC": 6512,
      "çıŃå¸Ī": 6513,
      "çĴĥ": 6514,
      "èĢįåŃĲ": 6515,
      "éĤ£å¦ĩäººéģĵ": 6516,
      "æļĤä¸Ķ": 6517,
      "åħĢé¢ľ": 6518,
      "æĴĩäºĨ": 6519,
      "ĠAnge": 6520,
      "åĺ»åĺ»": 6521,
      "çĤķä¸Ĭ": 6522,
      "é²įæĹŃ": 6523,
      "åĲĥäºĨä¸ĢæĥĬ": 6524,
      "Ġbody": 6525,
      "morrow": 6526,
      "Ġi": 6527,
      "ä½¯": 6528,
      "ä¸įä¸º": 6529,
      "ä¸įçŀĴ": 6530,
      "åĲ¼": 6531,
      "è¯¦": 6532,
      "åĩĦ": 6533,
      "å¼ı": 6534,
      "è¿Ļä¼Ļ": 6535,
      "å¾Ĺç½ª": 6536,
      "åıªéģĵ": 6537,
      "Ġsound": 6538,
      "ä¾¿åĶ¤": 6539,
      "åīĬ": 6540,
      "Ġbu": 6541,
      "åĪ°éĤ£": 6542,
      "ç¬ł": 6543,
      "å¤ªåı²": 6544,
      "åĲ¬çĿĢ": 6545,
      "èµ·ç¨ĭ": 6546,
      "äºĭäºĨ": 6547,
      "çŃīçī©": 6548,
      "åı¯çŁ¥": 6549,
      "ä¸ºä¸Ĭ": 6550,
      "Ġdra": 6551,
      "è´¾çĳŀ": 6552,
      "æĻ¦": 6553,
      "çĽ¸è²Į": 6554,
      "å¨¥": 6555,
      "è¨Ģè®«": 6556,
      "ä¸ľéĹ¨": 6557,
      "å¤ĸäºº": 6558,
      "åĢĴåľ¨": 6559,
      "Ġinst": 6560,
      "æĭ¿èµ·": 6561,
      "æľªå¿ħ": 6562,
      "ute": 6563,
      "ä¸ĩå²ģ": 6564,
      "åĽ½å¸Ī": 6565,
      "åŃĶäº®": 6566,
      "ĠHer": 6567,
      "å°½æķ°": 6568,
      "ä¹Łä¸įèĥ½": 6569,
      "æķ°åĲĪ": 6570,
      "å°ļä¹¦": 6571,
      "åķĲ": 6572,
      "è´¼ç§ĥ": 6573,
      "çº¢çİī": 6574,
      "ä¸ĥä¸ª": 6575,
      "æĻļä¸Ĭ": 6576,
      "ä¾Ŀè¨Ģ": 6577,
      "è´¥èµ°": 6578,
      "Ġfault": 6579,
      "åĮħéĩĮ": 6580,
      "æĶ»åŁİ": 6581,
      "ç§¦æ°ı": 6582,
      "Ġatt": 6583,
      "ä¿®è¡Į": 6584,
      "è®¤å¾Ĺæĺ¯": 6585,
      "å¦»åŃĲ": 6586,
      "åıĤè§ģ": 6587,
      "ç°ª": 6588,
      "Ġthank": 6589,
      "çŁ®èĻİ": 6590,
      "æ±Łæ¹ĸä¸Ĭ": 6591,
      "å®īéģĵåħ¨": 6592,
      "èĬŃèķī": 6593,
      "ç¶Ŀ": 6594,
      "ĠAngelo": 6595,
      "IA": 6596,
      "ience": 6597,
      "æ©": 6598,
      "äºĨåĩºæĿ¥": 6599,
      "ä¸įå¤ļ": 6600,
      "ä¸įæıĲ": 6601,
      "ä¸ĢåĮ¹": 6602,
      "ä¸Ģæł¹": 6603,
      "æĹºåĦ¿": 6604,
      "éĩĮéĹ´": 6605,
      "åľ¨è·¯": 6606,
      "è¡¡": 6607,
      "æĸ¯": 6608,
      "åĳľ": 6609,
      "çĽĪ": 6610,
      "é©¬éºŁ": 6611,
      "ä¸īåĲĪ": 6612,
      "ised": 6613,
      "éĥ½è¯´": 6614,
      "èĢģèº«": 6615,
      "åīįäºĭ": 6616,
      "å¤ªåĮ»": 6617,
      "çİĭçŁ®èĻİ": 6618,
      "æīĵçĤ¹": 6619,
      "éĴº": 6620,
      "åħĪå¸Ŀ": 6621,
      "èĢĮèµ·": 6622,
      "åĪĨå¼Ģ": 6623,
      "éķ¿çĶŁ": 6624,
      "åıĸè·¯": 6625,
      "å¿ħé¡»": 6626,
      "ä»İåħ¶è¨Ģ": 6627,
      "åħ¶æĦı": 6628,
      "åĨħå¤ĸ": 6629,
      "Ġindeed": 6630,
      "å¿ĻéĹ®": 6631,
      "å¾Ģåīį": 6632,
      "æĪĺé©¬": 6633,
      "å¥³åŃ©åĦ¿": 6634,
      "åºľå°¹": 6635,
      "ĠCAMIL": 6636,
      "æļĳ": 6637,
      "è´¾æ¯įçŃī": 6638,
      "ä¼ĳæĢª": 6639,
      "æĢĿæĸĩ": 6640,
      "è¢Ńäººç¬ĳéģĵ": 6641,
      "ä¹ĿåıĶ": 6642,
      "æ¯ĶåıĬ": 6643,
      "çģµå±±": 6644,
      "Ġanother": 6645,
      "ä¹ħéĹ»": 6646,
      "çīĽçİĭ": 6647,
      "èģļéĽĨ": 6648,
      "æĤŁç©ºéģĵ": 6649,
      "åĽ½çİĭéģĵ": 6650,
      "æ¡ĮåŃĲ": 6651,
      "Ġprove": 6652,
      "Ġplay": 6653,
      "éĺ®å°ıäºĶ": 6654,
      "åĪ°åºķæĺ¯": 6655,
      "å§Ĭå¦¹ä»¬": 6656,
      "ĠæŀĹåĨ²éģĵ": 6657,
      "æģ°å¥½": 6658,
      "ä¸ľåľŁå¤§åĶĲ": 6659,
      "è±¹åŃĲ": 6660,
      "Ġadv": 6661,
      "çĦļé¦Ļ": 6662,
      "èĬ±æŀľå±±": 6663,
      "Ġfalse": 6664,
      "ĠCAMILLO": 6665,
      "ily": 6666,
      "ä¸įçĲĨ": 6667,
      "ä¸įè¿Ń": 6668,
      "äººå¤ļ": 6669,
      "æĪĳéĤ£": 6670,
      "éĤ¬": 6671,
      "è¯´çŁ¥": 6672,
      "å¤§ç¬ĳéģĵ": 6673,
      "å¤§èĩ£": 6674,
      "ä¹ĭåīį": 6675,
      "çĶ«": 6676,
      "ä¸ĭæ¥¼": 6677,
      "åıªä¸º": 6678,
      "Ġser": 6679,
      "ç»ª": 6680,
      "å°ıçĶŁ": 6681,
      "å°ıèĪ¹": 6682,
      "æ¯Ĺ": 6683,
      "ä½ķåľ¨": 6684,
      "åĲ¬è§ģäºĨ": 6685,
      "éĺľ": 6686,
      "å°±æīĵ": 6687,
      "æŃ£èµ°": 6688,
      "ç¥ł": 6689,
      "æĮŁ": 6690,
      "æĵ¦": 6691,
      "æĸ¹å¤©": 6692,
      "omet": 6693,
      "ĠWould": 6694,
      "ä»İæĿ¥": 6695,
      "çĮ¢": 6696,
      "Ġhas": 6697,
      "æĦıæ¬²": 6698,
      "æ°ĶåĬĽ": 6699,
      "ç¥ŀè¡Į": 6700,
      "å©¢": 6701,
      "Ġuse": 6702,
      "Ġwel": 6703,
      "çłĤ": 6704,
      "æ³ķåĬĽ": 6705,
      "æĹ¢å¦ĤæŃ¤": 6706,
      "Ġret": 6707,
      "ä¼¼æŃ¤": 6708,
      "èģĺ": 6709,
      "Ġdeed": 6710,
      "æĻļéĹ´": 6711,
      "åİ¿éĩĮ": 6712,
      "ĠEven": 6713,
      "éĻĪè¾¾": 6714,
      "çī¹åľ°": 6715,
      "Ġvo": 6716,
      "äºĨä»ĸçļĦ": 6717,
      "éĺ´éĺ³": 6718,
      "ieve": 6719,
      "åįķå»·": 6720,
      "ç¨ĭæĻ®": 6721,
      "Ġsword": 6722,
      "è¿Ļä¹ĪçĿĢ": 6723,
      "è¶ģæĹ©": 6724,
      "æĿľåħ´": 6725,
      "è¯´å¾Ĺæĺ¯": 6726,
      "éĺİå©Ĩ": 6727,
      "ï¼įï¼į": 6728,
      "è·ĥé©¬": 6729,
      "éĥĿæĢĿæĸĩ": 6730,
      "ĠProvost": 6731,
      "è§ĦçŁ©": 6732,
      "éĴıåĦ¿": 6733,
      "Ġfellow": 6734,
      "åĭīå¼º": 6735,
      "TEN": 6736,
      "ä¸įåĲĥ": 6737,
      "æĪ³": 6738,
      "æĪĳå·²": 6739,
      "ä½łå®¶": 6740,
      "ä½łåħĪ": 6741,
      "å¤§åĪĢ": 6742,
      "å¤§åĳ¼": 6743,
      "è¿ĻåĴĮå°ļ": 6744,
      "åľ¨å±±": 6745,
      "çĿĢæĢ¥": 6746,
      "Ġmatter": 6747,
      "åıĪæĢķ": 6748,
      "ä¾¿èµ·èº«": 6749,
      "å±ł": 6750,
      "è®Ń": 6751,
      "Ġbo": 6752,
      "åĽŀæľ¬": 6753,
      "å°ıå°Ĩ": 6754,
      "å¤©ä½¿": 6755,
      "Ġfight": 6756,
      "åĲ¬çŁ¥": 6757,
      "è¦ģèµ°": 6758,
      "æİĩ": 6759,
      "æģª": 6760,
      "Ġpers": 6761,
      "åĽĽæµ·": 6762,
      "ans": 6763,
      "æĿĢå¥Ķ": 6764,
      "ä½¿çĶ¨": 6765,
      "æŁĶ": 6766,
      "æĶ¾å£°": 6767,
      "åıªè§ģä¸Ģä¸ª": 6768,
      "çĭ²": 6769,
      "ĠHOR": 6770,
      "ç¤©": 6771,
      "illain": 6772,
      "Ġeven": 6773,
      "æ¶ī": 6774,
      "è£°": 6775,
      "ade": 6776,
      "è®¸æĺĮ": 6777,
      "çŀħ": 6778,
      "å¿«åİ»": 6779,
      "éĩįèµı": 6780,
      "çİĭå¤«äººçŃī": 6781,
      "é¬ĵ": 6782,
      "è§īå¾Ĺ": 6783,
      "ä¼¤äºĨ": 6784,
      "äºĮåįģåĽĽ": 6785,
      "æĤŁèĥ½": 6786,
      "éģĩçĿĢ": 6787,
      "å¾¡éħĴ": 6788,
      "åĳĬè¯īä½ł": 6789,
      "åı°ä¸Ĭ": 6790,
      "èģļä¹ī": 6791,
      "å¤§æĥĬéģĵ": 6792,
      "éĻ¤äºĨ": 6793,
      "æĢ»ç®¡": 6794,
      "æĮĳçĿĢ": 6795,
      "éŁ©éģĤ": 6796,
      "éĤĵé£ŀ": 6797,
      "ç«ĻçĿĢ": 6798,
      "çŁ³ç§Ģéģĵ": 6799,
      "å¹¿å¤§": 6800,
      "å¤ªåħ¬éģĵ": 6801,
      "é¦Ĩé©¿": 6802,
      "ç¥¥äºĳ": 6803,
      "åĺ±åĴĲ": 6804,
      "æ¬£çĦ¶": 6805,
      "Ġfortune": 6806,
      "ä¸ĭæ³ªæĿ¥": 6807,
      "TENS": 6808,
      "ĠHORTENS": 6809,
      "Ġä¼Ĺ": 6810,
      "æĺ±": 6811,
      "ä¸Ģæīĭ": 6812,
      "åĨ»": 6813,
      "ä½łå¥½": 6814,
      "è¿Ļåľº": 6815,
      "åľ¨æĪĳ": 6816,
      "åľ¨ä¸Ĭ": 6817,
      "è¡¬": 6818,
      "Ġsent": 6819,
      "å¹¡": 6820,
      "åĨĽæ±ī": 6821,
      "çľĭå¾Ĺ": 6822,
      "åīįèĢħ": 6823,
      "éĻĩ": 6824,
      "åħ¬éģĵ": 6825,
      "å½ĵåĪĿ": 6826,
      "ç§ĳ": 6827,
      "åħ«çĻ¾": 6828,
      "èĦı": 6829,
      "æ°´éĻĨ": 6830,
      "éĶ¤": 6831,
      "åĿĲäºİ": 6832,
      "æľªæķ¢": 6833,
      "æľªåħį": 6834,
      "éĢģåĩº": 6835,
      "æ£ł": 6836,
      "æ»ĳ": 6837,
      "æľ¬æĿ¥": 6838,
      "å¹¶åĬĽ": 6839,
      "ç«ĭé©¬": 6840,
      "åĬ¨äºĨ": 6841,
      "ä½ĨæģĲ": 6842,
      "å¿«æ´»": 6843,
      "ĠFRI": 6844,
      "ä¸īèĹıéĹ»è¨Ģ": 6845,
      "éŃıå®ļåĽ½": 6846,
      "ä¿ĿæŃ£": 6847,
      "Ġsovere": 6848,
      "æıĲåħµ": 6849,
      "è¢ŃäººçŃī": 6850,
      "çł´äºĨ": 6851,
      "æĩĤ": 6852,
      "ç©¿çĿĢ": 6853,
      "èĲ¥å¯¨": 6854,
      "é¥®é£Ł": 6855,
      "hold": 6856,
      "èŁ¹": 6857,
      "åĳĬè¯īäºĨ": 6858,
      "è°ĭå£«": 6859,
      "Ġprison": 6860,
      "å±ħä½ı": 6861,
      "å¼ĵç®Ń": 6862,
      "åĶ¬éª¸": 6863,
      "å¼ĥäºĨ": 6864,
      "é¸³é¸¯éģĵ": 6865,
      "éĤ£æĢªéģĵ": 6866,
      "åļ¼": 6867,
      "åĥļ": 6868,
      "Ġgrave": 6869,
      "æħĪæĤ²": 6870,
      "æıªä½ı": 6871,
      "æĺ¼å¤ľ": 6872,
      "Ġcountry": 6873,
      "ĠUpon": 6874,
      "ĠHORTENSIO": 6875,
      "ĠFRIAR": 6876,
      ",'": 6877,
      "eal": 6878,
      "ä¸įæĶ¾": 6879,
      "æĹ¬": 6880,
      "èµİ": 6881,
      "ä½łæĺ¯ä¸ª": 6882,
      "å¤§æµ·": 6883,
      "åľ¨æ°´": 6884,
      "ä¸ĭå®ĺ": 6885,
      "æĭŁ": 6886,
      "Ġmerc": 6887,
      "åĩºå¾Ĺ": 6888,
      "ç»«": 6889,
      "åĽŀæĿ¥äºĨ": 6890,
      "ä¸¤æĿ¡": 6891,
      "ä½ķäºĭ": 6892,
      "ä¿Ń": 6893,
      "æŃ£åĢ¼": 6894,
      "åı«äºĨ": 6895,
      "Ġdan": 6896,
      "Ġcur": 6897,
      "çģ¶": 6898,
      "Ġyears": 6899,
      "éļľ": 6900,
      "å®ĭæ¸ħ": 6901,
      "ĠAre": 6902,
      "èĭ¥å¹²": 6903,
      "å·²èĩª": 6904,
      "åĲĥå¾Ĺ": 6905,
      "åģļä¸Ģ": 6906,
      "åģļä»Ģä¹Ī": 6907,
      "åħ«ä¹Ŀ": 6908,
      "æį£": 6909,
      "åĲ¾çŃī": 6910,
      "è¢«æĪĳ": 6911,
      "åºĶäºĨ": 6912,
      "ĠBAP": 6913,
      "é¸¦": 6914,
      "çĻ½æĹ¥": 6915,
      "åĪĺçİĦå¾·": 6916,
      "çĽ´è£°": 6917,
      "åĨ²å¤©": 6918,
      "åĨ²æĴŀ": 6919,
      "å·®æĭ¨": 6920,
      "åı¸æ£ĭ": 6921,
      "ury": 6922,
      "è§Ĥä¹ĭ": 6923,
      "åĲĽèĩ£": 6924,
      "æĦ¿å¾Ģ": 6925,
      "çĿ¡çĿĢ": 6926,
      "è½¦åŃĲ": 6927,
      "Ġsend": 6928,
      "äºĮåįģåħ«": 6929,
      "æĤŁåĩĢ": 6930,
      "ç«¥å¨ģ": 6931,
      "åºĨè´º": 6932,
      "Ġvirt": 6933,
      "æĽ¿æĪĳ": 6934,
      "æ¢¦ä¸Ń": 6935,
      "éĨĴäºĨ": 6936,
      "Ġrather": 6937,
      "å¤§åı«æĽ°": 6938,
      "åĲ¯å¥ı": 6939,
      "äºĨåįĬæĹ¥": 6940,
      "STA": 6941,
      "TISTA": 6942,
      "Ġbanish": 6943,
      "èŃ¦": 6944,
      "Ġdoubt": 6945,
      "ĠBAPTISTA": 6946,
      "CUS": 6947,
      "YCUS": 6948,
      "mp": 6949,
      "ä¸ĢæľĪ": 6950,
      "ä¸Ģå¾Ħ": 6951,
      "ä¸Ģæĭ¥": 6952,
      "ä¸Ģæ¦Ĥ": 6953,
      "æĹ·": 6954,
      "æĿ¥éĻį": 6955,
      "åĩĿ": 6956,
      "å¤§åĬŁ": 6957,
      "ä¼½": 6958,
      "ä¸Ĭå¤©": 6959,
      "ä¹ĭçĲĨ": 6960,
      "åľ¨å¤ĸå¤´": 6961,
      "åľ¨ä½ķå¤Ħ": 6962,
      "ä¸ĭçķĮ": 6963,
      "ouch": 6964,
      "åıĪåİ»": 6965,
      "Ġwant": 6966,
      "Ġwish": 6967,
      "ä¾¿ä¸į": 6968,
      "é©¬æŃ¥": 6969,
      "è·µ": 6970,
      "ä½ķä¸º": 6971,
      "å°±æĬĬ": 6972,
      "å±±éĹ¨": 6973,
      "å¿ĥä¸Ĭ": 6974,
      "åı¯éĢŁ": 6975,
      "åį´ä¼¼": 6976,
      "æĹłè®¡": 6977,
      "åı«ä»ĸä»¬": 6978,
      "åįģæĿ¥": 6979,
      "ĠTy": 6980,
      "ĠAUT": 6981,
      "å¼łæĺŃ": 6982,
      "Ġgr": 6983,
      "æ²¡å¥Īä½ķ": 6984,
      "å®īæ°ĳ": 6985,
      "åģļåħ¬": 6986,
      "æįŀ": 6987,
      "å²©": 6988,
      "å¼Ģåı£": 6989,
      "Ġhang": 6990,
      "åĩłå¤©": 6991,
      "è¶±": 6992,
      "çģ«çĦ°": 6993,
      "å¯¨åĨħ": 6994,
      "éļ¾ä¸º": 6995,
      "ä¹Łä¸įæĺ¯": 6996,
      "åįĹæµ·": 6997,
      "ĠCOM": 6998,
      "çłĸ": 6999,
      "çŁ³å¤´": 7000,
      "é»ĦçĽĸ": 7001,
      "èıĬ": 7002,
      "äº¦æĺ¯": 7003,
      "ç¢Ł": 7004,
      "Ġreven": 7005,
      "æıĲçĿĢ": 7006,
      "Ġass": 7007,
      "é¡»å¾Ĺ": 7008,
      "æ¥Ļ": 7009,
      "æĮĩéģĵ": 7010,
      "å®³æĢķ": 7011,
      "ä¾įç«ĭ": 7012,
      "åĽŃåŃĲ": 7013,
      "è·³åĩº": 7014,
      "èĶ¬": 7015,
      "æ³ªéģĵ": 7016,
      "åħ³åħ¬æĽ°": 7017,
      "fect": 7018,
      "åªĴ": 7019,
      "éĥŃæ±ľ": 7020,
      "è¹²": 7021,
      "pect": 7022,
      "OLYCUS": 7023,
      "æĿľè¿ģ": 7024,
      "æİ£åĩº": 7025,
      "ç¤¾ç¨·": 7026,
      "è¥¿éĹ¨åºĨéģĵ": 7027,
      "ä¸Ľä¸Ń": 7028,
      "Ġtruth": 7029,
      "æĬ½èº«": 7030,
      "åĲĨåĸĿ": 7031,
      "Ġbusiness": 7032,
      "é¤Ĳ": 7033,
      "ĠAUTOLYCUS": 7034,
      "ĠCOMINIUS": 7035,
      ".'": 7036,
      "dd": 7037,
      "Ġå½ĵæĹ¥": 7038,
      "ãĢĤâĢľ": 7039,
      "ä¸įéĢļ": 7040,
      "ä¸įæŃ¢": 7041,
      "ä¸Ģå¿ĥ": 7042,
      "ä¸ĢæĹ©": 7043,
      "äººè¯´": 7044,
      "äººä¹ĭ": 7045,
      "åİĮ": 7046,
      "åĪģ": 7047,
      "ä»ĸéģĵ": 7048,
      "ä½łæĪĳ": 7049,
      "å¤§ä¹±": 7050,
      "æķĿ": 7051,
      "ä¸ĬåŁİ": 7052,
      "è¡°": 7053,
      "ä¹Łè¯¥": 7054,
      "å°ĨæŃ¤": 7055,
      "çĿĢæĪĳ": 7056,
      "ç»ľ": 7057,
      "ä¾¿ç½¢": 7058,
      "ä¸ŃäºĨ": 7059,
      "å¥½äºĭ": 7060,
      "å¦ĤéĽ¨": 7061,
      "çľĭå¤Ħ": 7062,
      "è°¡": 7063,
      "ä»ĬæĻļ": 7064,
      "åĲ¬çļĦ": 7065,
      "çŃīèĢģåŃĻ": 7066,
      "æ±Łå¤ı": 7067,
      "æĻ¨": 7068,
      "ĠAt": 7069,
      "åħ«åįģ": 7070,
      "æį¶": 7071,
      "æ·ĺ": 7072,
      "çĪ¶çİĭ": 7073,
      "å¹´åīį": 7074,
      "å¿Ļç¬ĳéģĵ": 7075,
      "æĭ¿åİ»": 7076,
      "åį³å¿Ļ": 7077,
      "æľ¬å·ŀ": 7078,
      "ĠMore": 7079,
      "å¦Ĥä½ķæķ¢": 7080,
      "æĢİä¹Īä¸į": 7081,
      "çŁ³å®Ŀ": 7082,
      "ä¼ĹäººåĲ¬äºĨ": 7083,
      "Ġreason": 7084,
      "Ġlies": 7085,
      "Ġonly": 7086,
      "èĲ½é©¬": 7087,
      "ARENCE": 7088,
      "æĮĩæľĽ": 7089,
      "Ġshalt": 7090,
      "åĳĺå¤§å°Ĩ": 7091,
      "ĠThird": 7092,
      "éĥ¨å°Ĩ": 7093,
      "å°ģä¹¦": 7094,
      "èĬĤåº¦": 7095,
      "çĨĻ": 7096,
      "ç´¢æĢ§": 7097,
      "èĥ¡ä¹±": 7098,
      "éĺŁéĩĮ": 7099,
      "èħ°éĹ´": 7100,
      "ãĢĭï¼Į": 7101,
      "åıĪè§ģéĤ£": 7102,
      "è´«éģĵ": 7103,
      "Ġdisc": 7104,
      "èĴĭéĹ¨ç¥ŀ": 7105,
      "è¾ĵäºĨ": 7106,
      "æģķç½ª": 7107,
      "ĠæĻºæ·±éģĵ": 7108,
      "æ¬łèº«": 7109,
      "æ¢³æ´Ĺ": 7110,
      "ĠCLARENCE": 7111,
      "çĮ¢çĭ²": 7112,
      "ere": 7113,
      "ior": 7114,
      "ms": 7115,
      "pen": 7116,
      "rance": 7117,
      "Ġå®ĭæ±Łéģĵ": 7118,
      "ä¸įè±¡": 7119,
      "çļĦä¸«å¤´": 7120,
      "æĺ¯ä¹Ł": 7121,
      "èµł": 7122,
      "åİ»å¾Ĺ": 7123,
      "å¤§èĢģçĪ·": 7124,
      "è¿Ļä¸įæĺ¯": 7125,
      "åıªåı¯": 7126,
      "Ġsea": 7127,
      "åºĲ": 7128,
      "ä¸īä½į": 7129,
      "æĥļ": 7130,
      "å¥½ä¸ª": 7131,
      "äºĮéŃĶ": 7132,
      "çŁ¥ä»ĸ": 7133,
      "åĲ¬ä»ĸ": 7134,
      "å°±ä¸į": 7135,
      "åĴ³": 7136,
      "æĹłå¿ĥ": 7137,
      "Ġcra": 7138,
      "æĮª": 7139,
      "çī§": 7140,
      "èĬ¹": 7141,
      "æīĭéģĵ": 7142,
      "åħĪæĬĬ": 7143,
      "åħ¥å¸Ĳ": 7144,
      "å¼łä¸ī": 7145,
      "è¯ĿåĦ¿": 7146,
      "åŃĻäºĮ": 7147,
      "éħĴåºĹéĩĮ": 7148,
      "éĶŃ": 7149,
      "æĤī": 7150,
      "æĭ¿åĩºæĿ¥": 7151,
      "äºĨä¸Ģä¼ļ": 7152,
      "åį³ä»¤": 7153,
      "æħİ": 7154,
      "å¤ľæĿ¥": 7155,
      "çĹĩ": 7156,
      "æĪĴåĪĢ": 7157,
      "éľİ": 7158,
      "å°ĳé¡·": 7159,
      "Ġstra": 7160,
      "ENES": 7161,
      "éĢĢåİ»": 7162,
      "åĳ¨éĢļ": 7163,
      "å¤±èī²": 7164,
      "å¾ĲçĽĽ": 7165,
      "ä¹ħçŁ£": 7166,
      "åį¢åĳĺå¤ĸ": 7167,
      "åĵįå¤Ħ": 7168,
      "åĲ¬è§ģè¯´": 7169,
      "éĻªç¬ĳéģĵ": 7170,
      "ç¾¤å¦ĸ": 7171,
      "åĬ«å¯¨": 7172,
      "ç¥Ŀå®¶åºĦ": 7173,
      "æµĳèº«": 7174,
      "æ±īä¸Ńçİĭ": 7175,
      "Ġbreath": 7176,
      "Ġcommand": 7177,
      "Ġarms": 7178,
      "Ġdream": 7179,
      "æľĭåıĭ": 7180,
      "æ½ĩæ¹ĺé¦Ĩ": 7181,
      "pherd": 7182,
      "VOL": 7183,
      "der": 7184,
      "¥çı": 7185,
      "ä¸²": 7186,
      "ä¸įè¯Ń": 7187,
      "ä¸Ģè¯Ń": 7188,
      "å¿ĸ": 7189,
      "åľ¨åįĬ": 7190,
      "ä¸ĭèĪ¹": 7191,
      "çľł": 7192,
      "ç»©": 7193,
      "å±¡": 7194,
      "è®¯": 7195,
      "åĨĽå®ĺ": 7196,
      "åĦ¿å¥³": 7197,
      "å½»": 7198,
      "ä¸¤äºº": 7199,
      "ä¸¤å¤´": 7200,
      "ä¸¤å¤Ħ": 7201,
      "éĥ½éģĵ": 7202,
      "èĢģåŃĲ": 7203,
      "ä½ķèĭ¦": 7204,
      "è¦ģæĿ¥": 7205,
      "å±±åĲİ": 7206,
      "åĢª": 7207,
      "æŃ£åĲĪ": 7208,
      "æĬĬçĽı": 7209,
      "Ġlay": 7210,
      "ener": 7211,
      "Ġprom": 7212,
      "è¿Ľåħ¥": 7213,
      "çĽ¸è§ģäºĨ": 7214,
      "çĽ¸è¯Ĩ": 7215,
      "å½ĵéĿ¢": 7216,
      "å¼łä»»": 7217,
      "åĽĽåŃĹ": 7218,
      "å·²æŃ»": 7219,
      "æĿİäºĳ": 7220,
      "æĿİåĽº": 7221,
      "Ġgi": 7222,
      "æ²¡äºĭ": 7223,
      "çĲ¥çı": 7224,
      "å¼ķé¢Ĩ": 7225,
      "äºĨä¸Ģåı£": 7226,
      "æĪĺä¸į": 7227,
      "æ¡Ĳ": 7228,
      "éĢģæĿ¥": 7229,
      "å¤ľéĹ´": 7230,
      "ĠBEN": 7231,
      "å¥³åŃ©åŃĲ": 7232,
      "é¾Ł": 7233,
      "å¤ªå¤ªä»¬": 7234,
      "æĴ¤": 7235,
      "å¯¹éĿ¢": 7236,
      "Ġstran": 7237,
      "ĠGentle": 7238,
      "æĿ¨æĺ¥": 7239,
      "å¦¹åŃĲ": 7240,
      "æģĲæľī": 7241,
      "çªŁ": 7242,
      "åĮĹäº¬": 7243,
      "ĠNOR": 7244,
      "éº¾": 7245,
      "æħĮå¾ĹéĤ£": 7246,
      "æľīä¸Ģåº§": 7247,
      "Ġsec": 7248,
      "åĽŃåĨħ": 7249,
      "ä¸įæĽ¾è§ģ": 7250,
      "äºĮåįģéĩĮ": 7251,
      "å¸Ĳåīį": 7252,
      "è¿½æĿĢ": 7253,
      "è¿Ļä¸Ģåľº": 7254,
      "éĢłæ¬¡": 7255,
      "éĢłåıį": 7256,
      "èĶ¡çĳģ": 7257,
      "éŁ©å½ĵ": 7258,
      "éĤ£æĢªçī©": 7259,
      "æŁ´è¿Ľéģĵ": 7260,
      "æĿİçº¨éģĵ": 7261,
      "è¡ĻéĹ¨": 7262,
      "ä¿Ĺè¯Ń": 7263,
      "ä¹¾åĿ¤": 7264,
      "ĠClown": 7265,
      "å°ıåİ®ä»¬": 7266,
      "å»Ĭä¸ĭ": 7267,
      "åµĮ": 7268,
      "çĭ®åŃĲ": 7269,
      "å¼¥éĻĢ": 7270,
      "çĿ¦å·ŀ": 7271,
      "VOLIO": 7272,
      "çĲ¥çıĢ": 7273,
      "ĠBENVOLIO": 7274,
      "PER": 7275,
      "SPER": 7276,
      "¹éĽ": 7277,
      "åį¯": 7278,
      "çļĦæĹ¶åĢĻ": 7279,
      "æĪĳåĨį": 7280,
      "éĤ£å¥³åŃĲ": 7281,
      "åİ»åĲİ": 7282,
      "ä»ĸäºº": 7283,
      "å¤§ç¬ĳæĽ°": 7284,
      "ä¸Ĭå°Ĩ": 7285,
      "æĬĹ": 7286,
      "è´¬": 7287,
      "ï¼ŁãĢį": 7288,
      "Ġsen": 7289,
      "Ġsomet": 7290,
      "Ġwind": 7291,
      "åĨĽäºº": 7292,
      "å§»": 7293,
      "åĵŁ": 7294,
      "è¾Ķ": 7295,
      "åħµåĪ°": 7296,
      "ä¸İæ±Ŀ": 7297,
      "ä½ķçĶ¨": 7298,
      "ä½ķæĽ¾": 7299,
      "ä½ķä¹ĿåıĶ": 7300,
      "åĸī": 7301,
      "åį´å¾ħ": 7302,
      "æŃ£æŀľ": 7303,
      "åĲİåĨĽ": 7304,
      "è¿ĩåİ»äºĨ": 7305,
      "ä¼Ĺä½į": 7306,
      "æīĵçļĦ": 7307,
      "æīĵæŃ»äºĨ": 7308,
      "è´¾èĶ·": 7309,
      "ç¥·": 7310,
      "å®ĭä¸ĩ": 7311,
      "èµ°å¾Ĺ": 7312,
      "Ġpity": 7313,
      "ĠTake": 7314,
      "éħ£": 7315,
      "ä»¥èĩ´": 7316,
      "åĮ¾": 7317,
      "ä¸Ģä¸ªå°ı": 7318,
      "è¯ĿæĿ¥": 7319,
      "å·²ç½¢": 7320,
      "ä¸Ķåİ»": 7321,
      "æµĨ": 7322,
      "æ´¥": 7323,
      "è¥Ł": 7324,
      "é¦Ķ": 7325,
      "ä¸»ä¸Ĭ": 7326,
      "ä¸»å¼ł": 7327,
      "çĤŃ": 7328,
      "å·ŀåİ¿": 7329,
      "åħ¶äºĭ": 7330,
      "åĲĦæī§": 7331,
      "æ¡ĳ": 7332,
      "çĭŃ": 7333,
      "çĻ½æĹĹ": 7334,
      "åįĹéĹ¨": 7335,
      "åįĹéĥ¡": 7336,
      "åĶĲæĸĮ": 7337,
      "æĪ¿å±ĭ": 7338,
      "éľ¹éĽ": 7339,
      "é½Ĳé½Ĳ": 7340,
      "ĠPRO": 7341,
      "è¿ľæĿ¥": 7342,
      "çĹħäºĨ": 7343,
      "æĻļé¥Ń": 7344,
      "åĳ¨æ³°": 7345,
      "æ¹¿": 7346,
      "åĻª": 7347,
      "ä¿±åĲĦ": 7348,
      "è®©æĪĳ": 7349,
      "éĽ·åħ¬": 7350,
      "æĴŀçĿĢ": 7351,
      "åĬ©æĪĺ": 7352,
      "Ġproud": 7353,
      "è¿ĻäºĽäºº": 7354,
      "éĢĥçĶŁ": 7355,
      "ä¸īåįģåħŃ": 7356,
      "éĻªçĿĢ": 7357,
      "èĸĽå§¨å¦Īéģĵ": 7358,
      "èĨı": 7359,
      "æĬ±æĢ¨": 7360,
      "Ġholy": 7361,
      "èį¡èį¡": 7362,
      "Ġenough": 7363,
      "ä¸¥é¢ľ": 7364,
      "å¸ĺåŃĲ": 7365,
      "UMIO": 7366,
      "ĠGRUMIO": 7367,
      "éĥĵåĵ¥": 7368,
      "Ġcontent": 7369,
      "Ġremem": 7370,
      "æľīåĪĨæķĻ": 7371,
      "è²ĤèĿī": 7372,
      "éĤ¬æ¢¨": 7373,
      "SPERO": 7374,
      "éľ¹éĽ³": 7375,
      "ĠPROSPERO": 7376,
      "UTIO": 7377,
      "__": 7378,
      "ia": 7379,
      "ken": 7380,
      "ten": 7381,
      "ĴéºŁ": 7382,
      "äºĨè®¸å¤ļ": 7383,
      "ä¸įåıĹ": 7384,
      "ä¸įæµİ": 7385,
      "ä¸Ģè¨Ģ": 7386,
      "ä¸Ģæŀª": 7387,
      "äººéĹ´": 7388,
      "äººæĥħ": 7389,
      "åįŀ": 7390,
      "èĢĹ": 7391,
      "hed": 7392,
      "æľīåĬŁ": 7393,
      "è§ģä½ł": 7394,
      "åıªæķĻ": 7395,
      "é©´": 7396,
      "åıĪæĬĬ": 7397,
      "åıĪåĶ¤": 7398,
      "åıĪåĲ¬å¾Ĺ": 7399,
      "åĩºåĪ°": 7400,
      "å¦Ĥæľī": 7401,
      "åĲ¬åĢĻ": 7402,
      "æİī": 7403,
      "å°±å¦Ĥ": 7404,
      "å°±å¥½äºĨ": 7405,
      "å±±è·¯": 7406,
      "æŃ£ä¸İ": 7407,
      "Ġdare": 7408,
      "ç¥Ģ": 7409,
      "Ġthree": 7410,
      "çĽ¸æĮģ": 7411,
      "è¿ĺä½ł": 7412,
      "è¿ĺæľīä¸Ģ": 7413,
      "éħ¥": 7414,
      "åľ°ä¸Ĭ": 7415,
      "ä½ıéģĵ": 7416,
      "å®ĿçİīåĲ¬è¯´": 7417,
      "éķ¿æŀª": 7418,
      "åĽłç¬ĳéģĵ": 7419,
      "ator": 7420,
      "Ġbea": 7421,
      "å¿ħä¸º": 7422,
      "ç²¥": 7423,
      "åħ³éļĺ": 7424,
      "å¾Ģå¤ĸ": 7425,
      "é«ĺåı«": 7426,
      "ç¥ŀåĥ§": 7427,
      "ç¼ī": 7428,
      "åĩ¤ä¸«å¤´": 7429,
      "çĥ«": 7430,
      "åĽ½èĪħ": 7431,
      "ĠSu": 7432,
      "æĪĲçļĦ": 7433,
      "æľ¬å¤Ħ": 7434,
      "ĠMurderer": 7435,
      "ĠMERC": 7436,
      "æĴµ": 7437,
      "ç¤¼çī©": 7438,
      "æ±Ŀåı¯": 7439,
      "è¿ĳæĿ¥": 7440,
      "éŃıçİĭ": 7441,
      "Ġlives": 7442,
      "Ġsold": 7443,
      "éĿŀå¸¸": 7444,
      "éºĴéºŁ": 7445,
      "éĻĪå®īæĬļ": 7446,
      "ĠDid": 7447,
      "æĸ°éĩİ": 7448,
      "ĠKate": 7449,
      "Ġspir": 7450,
      "Ġfare": 7451,
      "æĸ½ä¸»": 7452,
      "æŃ¢æľī": 7453,
      "æī¶èµ·": 7454,
      "Ġswear": 7455,
      "å¾®å¾®": 7456,
      "ä»ĹçĿĢ": 7457,
      "çĬ¹æľªäºĨ": 7458,
      "å±±å¯¨éĩĮ": 7459,
      "é¸£éĩĳ": 7460,
      "ä¼´å½ĵ": 7461,
      "åįģæķ°ä¸ª": 7462,
      "åµ©": 7463,
      "åĪ¤å®ĺ": 7464,
      "å¤§åĸĿä¸Ģå£°": 7465,
      "éĶĲæ°Ķ": 7466,
      "ä¸Ģå½ªåĨĽ": 7467,
      "å¶·": 7468,
      "æ²§å·ŀ": 7469,
      "ĠMERCUTIO": 7470,
      "IS": 7471,
      "ike": 7472,
      "ĠåĲ´çĶ¨": 7473,
      "Ġä¸ĢæĹ¶": 7474,
      "äºĨä¸ī": 7475,
      "ä¸Ģçķª": 7476,
      "æĿ¥æĪĺ": 7477,
      "Ġtend": 7478,
      "èµĶ": 7479,
      "éĤ£å°ı": 7480,
      "è¿Ļå¤§åľ£": 7481,
      "ä¸Ĭçļĩ": 7482,
      "ä¹ĭå®¶": 7483,
      "ä¹ĭåĬĽ": 7484,
      "ä¸ĭèĲ½": 7485,
      "èĩŃ": 7486,
      "ä¹ŁæĿ¥": 7487,
      "ç»¦": 7488,
      "ä¾¿ä¸İ": 7489,
      "å¤´å·¾": 7490,
      "ä¸¤æĬĬ": 7491,
      "éĥ½è¢«": 7492,
      "å®Ŀæ®¿": 7493,
      "å°±åľ¨": 7494,
      "å°±å®ĮäºĨ": 7495,
      "çŃīä¸Ģ": 7496,
      "æģĥ": 7497,
      "ä¸ºåīįéĥ¨": 7498,
      "éĿ¢çĽ®": 7499,
      "è¿ĽæĿ¥äºĨ": 7500,
      "åĽĽå¤§": 7501,
      "å¤ļå¿ĥ": 7502,
      "å®ĭæ±Łä¸İ": 7503,
      "åĽłè¯´": 7504,
      "Ġget": 7505,
      "äºĶä¸ª": 7506,
      "è¯·åħ¥": 7507,
      "éĩĳåŃĲ": 7508,
      "éĩĳçıł": 7509,
      "å®īèĥ½": 7510,
      "ä½¿åĶ¤": 7511,
      "åıĸç¬ĳ": 7512,
      "ä¸ľè¾¹": 7513,
      "å¨ĺåĦ¿": 7514,
      "æĹ©é¥Ń": 7515,
      "æĶ¾ä»ĸ": 7516,
      "çĶļåĸľ": 7517,
      "eter": 7518,
      "çļĨæľī": 7519,
      "çĻ½çİī": 7520,
      "åįĹå®ī": 7521,
      "è®¡åħ¶æķ°": 7522,
      "é»ĦæĹĹ": 7523,
      "æķĳæĪĳ": 7524,
      "Ġwithin": 7525,
      "ä½Ĩåıª": 7526,
      "å§ĳåŃĲ": 7527,
      "åĨ²æĿĢ": 7528,
      "Ġdep": 7529,
      "èĸĽæ°¸": 7530,
      "æŃ¥è¡Į": 7531,
      "æĿĥä¸Ķ": 7532,
      "ä¼¤æĦŁ": 7533,
      "èľĢä¸Ń": 7534,
      "ç«¥çĮĽ": 7535,
      "èį£åºľ": 7536,
      "å¼ºäºº": 7537,
      "æİ¨åĩº": 7538,
      "Ġvillain": 7539,
      "åŀĵ": 7540,
      "Ġgods": 7541,
      "çľģéĻ¢": 7542,
      "èĶ¡ç¦ı": 7543,
      "é¢ľèī²": 7544,
      "éĴŁä¼ļ": 7545,
      "åģľå½ĵ": 7546,
      "ä¸Ĭå±±æĿ¥": 7547,
      "ä½łçľĭéĤ£": 7548,
      "ä¹¾å¨ĺ": 7549,
      "ç²īç¢İ": 7550,
      "ĠWere": 7551,
      "æ°´åĨĽå¤´é¢Ĩ": 7552,
      "ĠLUCENTIO": 7553,
      "è½»è½»çļĦ": 7554,
      "ĠServant": 7555,
      "Ġnature": 7556,
      "Ġwelcome": 7557,
      "åŃĻäºĮå¨ĺ": 7558,
      "éľİæĹ¶": 7559,
      "Ġå½ĵæĹ¶": 7560,
      "ï¼Į`": 7561,
      "è¯Ħ": 7562,
      "èµĥ": 7563,
      "å¼¼": 7564,
      "åİ»æĹ¶": 7565,
      "æľīä¸¤ä¸ª": 7566,
      "ä»ĸä¸į": 7567,
      "ä»ĸè¿Ļ": 7568,
      "è¯´ç¬ĳ": 7569,
      "ä¼ŀ": 7570,
      "ä¹ĭéģĵ": 7571,
      "Ġsister": 7572,
      "çĿĢçľ¼": 7573,
      "åıĪç¬ĳéģĵ": 7574,
      "ä¾¿æīĵ": 7575,
      "ham": 7576,
      "æ²Ī": 7577,
      "ä½ķåĨµ": 7578,
      "Ġfoul": 7579,
      "Ġfree": 7580,
      "ä¿Ĳ": 7581,
      "ç½¡": 7582,
      "ç¥Ī": 7583,
      "Ġthings": 7584,
      "ars": 7585,
      "åħ¬çĳ¾": 7586,
      "çĽ¸éĢģ": 7587,
      "åŁİè¾¹": 7588,
      "æĵŀ": 7589,
      "åħ¥ä¼Ļ": 7590,
      "å¼łéĥ½çĽĳ": 7591,
      "èĭ¥è¿ĺ": 7592,
      "Ġgre": 7593,
      "æ²¡çļĦ": 7594,
      "çĲ®": 7595,
      "æŃ»èĢħ": 7596,
      "éŃģ": 7597,
      "ä»İåīį": 7598,
      "æĥ³äºĨä¸Ģ": 7599,
      "èĬ±åĦ¿": 7600,
      "çľŁçļĦ": 7601,
      "æŀĹä¸Ń": 7602,
      "åºĶå£°": 7603,
      "çĹĴ": 7604,
      "ä¹Łä¸įæĽ¾": 7605,
      "æł·åŃĲ": 7606,
      "æŀľåĵģ": 7607,
      "å¿½åĲ¬": 7608,
      "ä¸įæĺ¯æĪĳ": 7609,
      "æ·±å¤Ħ": 7610,
      "Ġkiss": 7611,
      "ä¸ĥåįģ": 7612,
      "ĠPOM": 7613,
      "ester": 7614,
      "éŃĶå¤´": 7615,
      "ç¦»åŁİ": 7616,
      "æĪĸæĺ¯": 7617,
      "æī¶çĿĢ": 7618,
      "åĽ¾ä¹ĭ": 7619,
      "åıĤè°ĭ": 7620,
      "æĶ¶æĭ¾äºĨ": 7621,
      "çĬ¯äºĨ": 7622,
      "å¼ŁåħĦä¸¤ä¸ª": 7623,
      "Ġsaw": 7624,
      "Ġmadam": 7625,
      "ä½Ĩè§ģéĤ£": 7626,
      "ç¥¥åħī": 7627,
      "åĲĵå¾Ĺ": 7628,
      "LAND": 7629,
      "æİªæīĭ": 7630,
      "Ġmistress": 7631,
      "è£´å®£": 7632,
      "Ġhappy": 7633,
      "è¿¤éĢ": 7634,
      "å¤ªåı²æħĪ": 7635,
      "Ġsovereign": 7636,
      "ĠPOMP": 7637,
      "-ï¼İ": 7638,
      "LINA": 7639,
      "apt": 7640,
      "ient": 7641,
      "unt": 7642,
      "ä¸Ģéģį": 7643,
      "æĪĳåĴĮ": 7644,
      "æī¹": 7645,
      "åİ»æķĳ": 7646,
      "ä¸ĬçķĮ": 7647,
      "è§ģçļĦ": 7648,
      "è§ģè¯Ĩ": 7649,
      "çĽ¼": 7650,
      "ç»Ľ": 7651,
      "hal": 7652,
      "é©¬çģµ": 7653,
      "åīĸ": 7654,
      "ä¸īåĽŀ": 7655,
      "åĪ°å¤Ħ": 7656,
      "å°ıæł¡": 7657,
      "åħµæĿ¥": 7658,
      "å¤©å°Ĭ": 7659,
      "åīįå¾Į": 7660,
      "å®ĿåħĦå¼Ł": 7661,
      "å®Ŀå§ĳå¨ĺ": 7662,
      "ä¿ı": 7663,
      "æĹłè·¯": 7664,
      "éĹ¨åŃĲ": 7665,
      "æŃ£éģĩ": 7666,
      "Ġcity": 7667,
      "Ġyield": 7668,
      "æĻķ": 7669,
      "æĮł": 7670,
      "è¿ĺæľª": 7671,
      "èį¤": 7672,
      "æĿİå¤©çİĭ": 7673,
      "any": 7674,
      "çĶ¨åħµ": 7675,
      "çĲĥ": 7676,
      "åģļå£°": 7677,
      "åıĸèĥľ": 7678,
      "ä¸ľåĮĹ": 7679,
      "ĠWas": 7680,
      "è¥¿åįĹ": 7681,
      "æŁ©": 7682,
      "ä½ľäºĨ": 7683,
      "è¢«äºº": 7684,
      "çģ«çĤ®": 7685,
      "æĢ¥äºĨ": 7686,
      "æīĢæľī": 7687,
      "åĽ½ä¹ĭ": 7688,
      "æĪĲéĺµåĬ¿": 7689,
      "çĸĨ": 7690,
      "åĪĺå°ģ": 7691,
      "åĪĢæĸ§": 7692,
      "çłĮ": 7693,
      "çłļ": 7694,
      "æ¶ķ": 7695,
      "æĥĬå¾Ĺ": 7696,
      "å¯¹ä¼Ĺ": 7697,
      "èĮĤ": 7698,
      "ĠGive": 7699,
      "ĠPAU": 7700,
      "å«©": 7701,
      "å¿µå¿µ": 7702,
      "å½ĴæĿ¥": 7703,
      "åİŁæĿ¥éĤ£": 7704,
      "å®¢åºĹ": 7705,
      "vers": 7706,
      "å¤§åĸľæĽ°": 7707,
      "çİ°äºĨæľ¬": 7708,
      "ç¿»äºĨ": 7709,
      "çºµæ¨ª": 7710,
      "èī¯ä¹ħ": 7711,
      "åı¸é©¬å¸Ī": 7712,
      "å¤§æĢĴéģĵ": 7713,
      "å½¼æŃ¤": 7714,
      "å¼ĵå¼©": 7715,
      "å±¯æīİ": 7716,
      "æİ¢æĺ¥éģĵ": 7717,
      "èĪħèĪħ": 7718,
      "æ¸¡æ±Ł": 7719,
      "ä¸ĭå±±æĿ¥": 7720,
      "è¿³å¥Ķ": 7721,
      "æ³°å±±": 7722,
      "é©±åħµ": 7723,
      "Ġbreak": 7724,
      "é³ŀ": 7725,
      "æį»çĿĢ": 7726,
      "Ġmeans": 7727,
      "åģ¶çĦ¶": 7728,
      "ĠæĻģçĽĸéģĵ": 7729,
      "Ġsubject": 7730,
      "Ġbeseech": 7731,
      "ĠPAULINA": 7732,
      "ä¸įä¸İ": 7733,
      "ä¸įè¨Ģ": 7734,
      "ä¸įä¹Ĳ": 7735,
      "ä¸įè¯¥": 7736,
      "ä¸įå¹¸": 7737,
      "éģģ": 7738,
      "æĺ§": 7739,
      "è¯°": 7740,
      "æľ¦": 7741,
      "äººäºº": 7742,
      "æĪĳä¸º": 7743,
      "åĨ¥": 7744,
      "è¯´å®Į": 7745,
      "å¤§çº¢": 7746,
      "è¿Ļäºº": 7747,
      "ä¸Ĭå¤ľ": 7748,
      "éĩĮè¾¹": 7749,
      "Ġaw": 7750,
      "æĭĻ": 7751,
      "Ġmer": 7752,
      "åıĪæ·»": 7753,
      "åĩºæĽ°": 7754,
      "ç»¶": 7755,
      "ä¾¿åĴĮ": 7756,
      "éĿĸ": 7757,
      "é©¬åīį": 7758,
      "Ġborn": 7759,
      "åĽŀäº¬": 7760,
      "åĽŀéģ¿": 7761,
      "è¾©": 7762,
      "èĩªå¼ķ": 7763,
      "ery": 7764,
      "å°±æĿ¥": 7765,
      "åį´æķĻ": 7766,
      "æĬĬæīĭ": 7767,
      "Ġden": 7768,
      "è´¾è¯©": 7769,
      "éĽł": 7770,
      "Ġhorse": 7771,
      "Ġoath": 7772,
      "è¿ĺè¯´": 7773,
      "å½ĵä¸Ń": 7774,
      "åħ¥åĨħ": 7775,
      "æĸ¹åĽŀ": 7776,
      "åĪĨä½ľ": 7777,
      "èĤĨ": 7778,
      "åģļçĶļä¹Ī": 7779,
      "å¼Ģå¤Ħ": 7780,
      "æŁ¯": 7781,
      "ä»İå¤´": 7782,
      "åĢĴæį¢": 7783,
      "æ¯įåŃĲ": 7784,
      "æĹ©åĪ°": 7785,
      "å¹´è½»": 7786,
      "ä¹¦ä¿¡": 7787,
      "åĲĮå¿ĥ": 7788,
      "çĻ¾ä¸ĩ": 7789,
      "æīĢè¨Ģ": 7790,
      "æĸĩä¸ĳ": 7791,
      "æĸĩç«ł": 7792,
      "ĠSay": 7793,
      "è§£ä¸ĭ": 7794,
      "åįĬçĤ¹": 7795,
      "ä¸įå¾ĹäºĨ": 7796,
      "æŀľè§ģ": 7797,
      "éĺµä¸Ĭ": 7798,
      "éĿĴé¾Ļ": 7799,
      "Ġyours": 7800,
      "è°ģæĥ³": 7801,
      "éģĤåĳ½": 7802,
      "ĠLook": 7803,
      "äº¦æľī": 7804,
      "ç¢Į": 7805,
      "èĩ£çŃī": 7806,
      "æĢĿéĩı": 7807,
      "èľĤ": 7808,
      "çģ¯çĥĽ": 7809,
      "å±ĭåŃĲ": 7810,
      "è¾ŀåĪ«": 7811,
      "å¾ĮéĿ¢": 7812,
      "æ½®": 7813,
      "æŀľçĦ¶æĺ¯": 7814,
      "èħ°éĩĮ": 7815,
      "onder": 7816,
      "åĩ¤å§ĲåĦ¿éģĵ": 7817,
      "çĸ¼çĹĽ": 7818,
      "gainst": 7819,
      "æīĵåıĳäºº": 7820,
      "éĺ¿å¼¥éĻĢ": 7821,
      "ague": 7822,
      "eft": 7823,
      "ç¥ŀéĢļå¹¿å¤§": 7824,
      "è±«å·ŀ": 7825,
      "gether": 7826,
      "ĠGREMIO": 7827,
      "çĦĻèĮĹ": 7828,
      "è¿¤éĢ¦": 7829,
      "ĠPOMPEY": 7830,
      "éĺ¿å¼¥éĻĢä½Ľ": 7831,
      ".\"": 7832,
      "NIA": 7833,
      "OLI": 7834,
      "XENES": 7835,
      "balt": 7836,
      "äºĨäºº": 7837,
      "ä¸įæĺİ": 7838,
      "ä¸įç¦ģ": 7839,
      "Ġtem": 7840,
      "åĩ¿": 7841,
      "éĹ¯": 7842,
      "ä»ĸåľ¨": 7843,
      "å¤§éĥİ": 7844,
      "ä¼Ĭ": 7845,
      "è¿ĻæĿ¡": 7846,
      "ä¹ĭæĹ¥": 7847,
      "ä¹ĭåĬ¿": 7848,
      "åıĪä¸Ģ": 7849,
      "åıĪåĲĳ": 7850,
      "Ġwound": 7851,
      "Ġwhile": 7852,
      "å±ģ": 7853,
      "æĹ¥å¤ľ": 7854,
      "ç¬Ľ": 7855,
      "åĽŀä¹¦": 7856,
      "éĥ½ç®¡": 7857,
      "Ġfire": 7858,
      "è¦ģè¡Į": 7859,
      "è¦ģåĲĥ": 7860,
      "é£ķ": 7861,
      "åı«ä¸Ģå£°": 7862,
      "Ġdru": 7863,
      "æĺİæľĪ": 7864,
      "è¿ĽæĽ°": 7865,
      "åħĪåĪ°": 7866,
      "è¿ĺæ²¡": 7867,
      "åĽĽäºĶåįģ": 7868,
      "è·¯å¾Ħ": 7869,
      "åĪĨå¤´": 7870,
      "anc": 7871,
      "éĩĳé¼ĵ": 7872,
      "éªģ": 7873,
      "éĤ£éĩĮæķ¢": 7874,
      "åĲ¾å·²": 7875,
      "çĻ¾ä½Ļ": 7876,
      "æĢ¥çļĦ": 7877,
      "éĢģèĩ³": 7878,
      "æĭľè¾ŀ": 7879,
      "ĠCom": 7880,
      "æĽ´æľī": 7881,
      "æķĳåħµ": 7882,
      "çľ¼éĩĮ": 7883,
      "Ġyourself": 7884,
      "å¿«èµ°": 7885,
      "åĨ²çªģ": 7886,
      "ĠPOLI": 7887,
      "äº¤æ¤ħ": 7888,
      "çħĮ": 7889,
      "åĤ²": 7890,
      "usic": 7891,
      "ç½Ĺæ±ī": 7892,
      "Ġsupp": 7893,
      "Ġfaith": 7894,
      "åı¤æĢª": 7895,
      "çħ§åºĶ": 7896,
      "ĠVOL": 7897,
      "å®Įå¤ĩ": 7898,
      "ä¸īåįģéĩĮ": 7899,
      "å±¯äºİ": 7900,
      "ç¯±": 7901,
      "æ¹ĺäºĳéģĵ": 7902,
      "ä¸ģå¥ī": 7903,
      "ç»³ç´¢": 7904,
      "é¢ĦåħĪ": 7905,
      "ç©¶ç«Ł": 7906,
      "æªĦ": 7907,
      "Ġbloody": 7908,
      "Ġlooks": 7909,
      "UMNIA": 7910,
      "éĺİçİĭ": 7911,
      "çİĭå©Ĩéģĵ": 7912,
      "ä¸Ģåıªæīĭ": 7913,
      "ches": 7914,
      "çļĪä¾Ŀ": 7915,
      "ĠEngland": 7916,
      "æİªæīĭä¸įåıĬ": 7917,
      "ĠPOLIXENES": 7918,
      "ĠVOLUMNIA": 7919,
      "ey": 7920,
      "ues": 7921,
      "ĠåĲ´çĶ¨éģĵ": 7922,
      "å¤·": 7923,
      "å®¦": 7924,
      "ä¸įè®¡åħ¶æķ°": 7925,
      "è¯¡": 7926,
      "æĿ¥éĹ®": 7927,
      "æĪĳæĬĬ": 7928,
      "æĪĳçŁ¥éģĵ": 7929,
      "çİº": 7930,
      "çİ»": 7931,
      "éĤ£ä¸ī": 7932,
      "å¤§ä¼ļ": 7933,
      "å¤§è§Ĥ": 7934,
      "å¦Ĵ": 7935,
      "è¿Ļåĩłä¸ª": 7936,
      "ä¸Ĭä¹¦": 7937,
      "ä¹ĭç¤¼": 7938,
      "ä¹ĭè¾Ī": 7939,
      "å¾Ĺç´§": 7940,
      "ä¸ĭäºº": 7941,
      "åıªçľĭ": 7942,
      "Ġsit": 7943,
      "æĸĳ": 7944,
      "å°Ĩåħ¥æĿ¥": 7945,
      "åıĪä»¤": 7946,
      "Ġwin": 7947,
      "åĨĽå°Ĩ": 7948,
      "é©¬èħ¾": 7949,
      "è¡ĮåĪ°": 7950,
      "å¥½æĿĢ": 7951,
      "çŁ¥å¯¨": 7952,
      "æ²Ĳ": 7953,
      "å±±å¤´": 7954,
      "åĴķ": 7955,
      "æŃ£æľĪ": 7956,
      "Ġcar": 7957,
      "Ġcond": 7958,
      "enger": 7959,
      "æĮ«": 7960,
      "è½°": 7961,
      "åħ¥åŁİä¸Ń": 7962,
      "æ¸º": 7963,
      "å®Ŀçİīå¿Ļ": 7964,
      "æµĭ": 7965,
      "ingman": 7966,
      "æ´ģ": 7967,
      "æ°´çģ«": 7968,
      "èī°": 7969,
      "æŃ¦è¡ĮèĢħ": 7970,
      "è¿ŀçİ¯": 7971,
      "ĠHAST": 7972,
      "åĩºæĿ¥çļĦ": 7973,
      "æĢİä¹ĪåıĪ": 7974,
      "çŁ³ç¢": 7975,
      "é»Ħç¥ĸ": 7976,
      "åħīæĺİ": 7977,
      "ĠFare": 7978,
      "è¯¸ä¾¯": 7979,
      "Ġrequ": 7980,
      "ä¼ĳèµ°": 7981,
      "æĿ¨ä»ª": 7982,
      "éĩįéĩį": 7983,
      "æ²Ļæ»©": 7984,
      "å¤§åľ£éģĵ": 7985,
      "åĮĹéĹ¨": 7986,
      "èİ«è¯´": 7987,
      "ä¾ĿçĦ¶": 7988,
      "èľľ": 7989,
      "æĮĩæĮ¥": 7990,
      "éĻĪå®«": 7991,
      "Ġspo": 7992,
      "ç§°ä¸º": 7993,
      "åĮħåĭĩ": 7994,
      "æľ¨åıī": 7995,
      "INGS": 7996,
      "é©¾äºĳ": 7997,
      "åĺ´èĦ¸": 7998,
      "èī¯çŃĸ": 7999,
      "å¤ºè·¯": 8000,
      "æĮīèĲ½": 8001,
      "äºĳéķ¿æĽ°": 8002,
      "è·ªåľ¨": 8003,
      "çĮĽå°Ĩ": 8004,
      "ç¯®": 8005,
      "éª¨èĤī": 8006,
      "æĭħåĦ¿": 8007,
      "å²Ńä¸Ĭ": 8008,
      "èŁłæ¡ĥ": 8009,
      "åį±æĢ¥": 8010,
      "å§Ķå±Ī": 8011,
      "æĬĸæĵŀ": 8012,
      "Ġcommon": 8013,
      "éĴĪçº¿": 8014,
      "åİīå£°é«ĺåı«éģĵ": 8015,
      "Ġmaj": 8016,
      "éĤ¹æ¸Ĭ": 8017,
      "ĠServingman": 8018,
      "Ġtraitor": 8019,
      "centio": 8020,
      "æĶ¾å£°å¤§åĵŃ": 8021,
      "åģļåħ¬çļĦ": 8022,
      "ĠHASTINGS": 8023,
      "RENCE": 8024,
      "by": 8025,
      "broke": 8026,
      "rong": 8027,
      "Ġä¼Ĺäºº": 8028,
      "ĠæĭĶ": 8029,
      "æĿŃ": 8030,
      "äºĨå¤ļå°ĳ": 8031,
      "ä¸įæľį": 8032,
      "ä¸įåĪ©": 8033,
      "ä¸įçĶ±": 8034,
      "ä¸ĢäºĮ": 8035,
      "ä¸Ģå¯¹": 8036,
      "ä¸ĢåŃĹ": 8037,
      "ä¸Ģåı¥è¯Ŀ": 8038,
      "æĿ¥å¯»": 8039,
      "æĪĳåĦ¿": 8040,
      "æĪĳåħĪ": 8041,
      "éĹº": 8042,
      "éĤ£è¡ĮèĢħ": 8043,
      "æľīå¿ĥ": 8044,
      "è¯´äºĽ": 8045,
      "ä½łæľī": 8046,
      "å¤§å¤ªå¤ª": 8047,
      "ä¸Ĭæ®¿": 8048,
      "è§ģæľī": 8049,
      "ä¹ĭä¸»": 8050,
      "åľ¨ç©ºä¸Ń": 8051,
      "ä¹Łåıª": 8052,
      "ä¹Łéļ¾": 8053,
      "çĿĢä½ł": 8054,
      "çĿĢåĳ¢": 8055,
      "Ġmon": 8056,
      "åĩºå¸Ī": 8057,
      "ç»Ĭ": 8058,
      "åĵĳ": 8059,
      "çľĭè§Ĩ": 8060,
      "åīįéĹ¨": 8061,
      "èĥĸ": 8062,
      "çİĭèĭ±": 8063,
      "ä½ķæĿ¥": 8064,
      "åį´å°Ĩ": 8065,
      "æģ³": 8066,
      "éĿ¢çļ®": 8067,
      "Ġlam": 8068,
      "ä¸Ķä½ı": 8069,
      "çĶ¨å¿ĥ": 8070,
      "ä¸»å°Ĩ": 8071,
      "å¼Ģè·¯": 8072,
      "çĮ©": 8073,
      "åĲ¾ä¹ĥ": 8074,
      "åĽ½å¤ª": 8075,
      "æ®¡": 8076,
      "ĠHast": 8077,
      "ĠMay": 8078,
      "èħĶ": 8079,
      "èĹıåľ¨": 8080,
      "å¦Ĥä½ķèĤ¯": 8081,
      "åįĹè¾¹": 8082,
      "ĠCan": 8083,
      "ä»Ģä¹Īäºĭ": 8084,
      "æĪ¿åŃĲ": 8085,
      "åĭĭ": 8086,
      "åĩ¤å§ĲåĲ¬äºĨ": 8087,
      "éľŃ": 8088,
      "éĿĴè¡£": 8089,
      "åł¤": 8090,
      "ĠLAU": 8091,
      "åħīèķĬ": 8092,
      "çº¢äºĨèĦ¸": 8093,
      "çķĻå¿ĥ": 8094,
      "ä¿ĿåĶĲåĥ§": 8095,
      "çªį": 8096,
      "Ġdef": 8097,
      "èİ«æĥ³": 8098,
      "è´¥åĨĽ": 8099,
      "æİ¢é©¬": 8100,
      "æİ¢çŁ¥": 8101,
      "essenger": 8102,
      "å®³æĪĳ": 8103,
      "çģµéľĦ": 8104,
      "åĳ¼åĶ¤": 8105,
      "éĹ¹çļĦ": 8106,
      "èĵ¼": 8107,
      "çģ¯çģ«": 8108,
      "æ¼ł": 8109,
      "å¡Į": 8110,
      "å²¸è¾¹": 8111,
      "ä½ĵéĿ¢": 8112,
      "èħ°åĪĢ": 8113,
      "éĤ£äºĽäºº": 8114,
      "æ··æĪĺ": 8115,
      "Ġuncle": 8116,
      "çº³éĹ·": 8117,
      "æ¬ºè´Ł": 8118,
      "ä¹Įé¾Ļ": 8119,
      "éģ®æĭ¦": 8120,
      "Ġmark": 8121,
      "éģ¥æľĽ": 8122,
      "å¹½å·ŀ": 8123,
      "çĽĬå·ŀ": 8124,
      "åĸĬå£°å¤§éľĩ": 8125,
      "è¿ľè¿ľåľ°": 8126,
      "Ġchildren": 8127,
      "ç³ľç«º": 8128,
      "ertain": 8129,
      "æĢłæħ¢": 8130,
      "èł¢": 8131,
      "ĠLAURENCE": 8132,
      "BY": 8133,
      "BER": 8134,
      "æĨ": 8135,
      "æĺ¯çĶļ": 8136,
      "æĪĳä¸İ": 8137,
      "éĤ£é©¬": 8138,
      "éĤ£ä¼Ļ": 8139,
      "æľīåĲį": 8140,
      "å¤§å°ī": 8141,
      "è§ģä¸Ģ": 8142,
      "å¾ĹèĦ±": 8143,
      "çĶľ": 8144,
      "ä¸ĭä»¤": 8145,
      "Ġsight": 8146,
      "Ġmet": 8147,
      "åıĪä¸įçŁ¥": 8148,
      "åĩºå®¶": 8149,
      "ç»®": 8150,
      "è¡Įç¤¼": 8151,
      "åĽŀæĺİ": 8152,
      "å¥½æĦı": 8153,
      "å¥½å®¹æĺĵ": 8154,
      "èĢģäºº": 8155,
      "å®ĿæĿĸ": 8156,
      "åı¯ä¹Ł": 8157,
      "æģ¢": 8158,
      "ç¬ĳèµ·æĿ¥": 8159,
      "Ġlate": 8160,
      "Ġleft": 8161,
      "åħ¬åħ¬": 8162,
      "èµ°çļĦ": 8163,
      "å½ĵæľī": 8164,
      "ç®¸": 8165,
      "ĠAh": 8166,
      "å¼łå¶·": 8167,
      "èĭ¥è®º": 8168,
      "æĿİæĪĲ": 8169,
      "åĪĨè¯´": 8170,
      "å¤ļäºĨ": 8171,
      "äºĶæĸ¹": 8172,
      "éĩĳå¸Ľ": 8173,
      "å®īå¾Ĺ": 8174,
      "Ġbeat": 8175,
      "åĢĴåľ¨åľ°": 8176,
      "åħ³æŁĲ": 8177,
      "æľªå°Ŀ": 8178,
      "é£İåĲ¹": 8179,
      "åį³å°Ĩ": 8180,
      "äº²åıĭ": 8181,
      "å¤ľåıī": 8182,
      "è¿ŀå£°": 8183,
      "åĪ«æĹł": 8184,
      "åŃĶçĽ®": 8185,
      "åįĬæľĪ": 8186,
      "åĶĲä¸īèĹı": 8187,
      "æĲĤ": 8188,
      "æ³ķæŃ£": 8189,
      "æľĿä¸Ĭ": 8190,
      "æ±ĿäºĮäºº": 8191,
      "å°ĳæĹ¶": 8192,
      "å°ĳå¹´": 8193,
      "Ġsoon": 8194,
      "çªĦ": 8195,
      "é¡»è¦ģ": 8196,
      "è§Ĥå¯Ł": 8197,
      "èĴ²": 8198,
      "èĥĮä¸Ĭ": 8199,
      "èįīå¯ĩ": 8200,
      "æµģæĺŁ": 8201,
      "éĻ¢ä¸Ń": 8202,
      "åĲķæŀ¢å¯Ĩ": 8203,
      "è¿½ä¹ĭ": 8204,
      "æ¯ıäºº": 8205,
      "Ġval": 8206,
      "åĳĬè¯īä»ĸ": 8207,
      "è¢ģå°ļ": 8208,
      "éĶ¦è¡£": 8209,
      "æĢ§åĳ½å¦Ĥä½ķ": 8210,
      "çĶ»æĪŁ": 8211,
      "æĭĶåīĳ": 8212,
      "ç«Ļåľ¨": 8213,
      "æ»ļæ»ļ": 8214,
      "æ³¼çĮ´": 8215,
      "æ¬¢åĸľéģĵ": 8216,
      "ĠJul": 8217,
      "éĤ£èĢģèĢħ": 8218,
      "çªĹå¤ĸ": 8219,
      "åħĢèĩª": 8220,
      "ç®įåĦ¿": 8221,
      "ĠTherefore": 8222,
      "å¥ĭåĬĽ": 8223,
      "æ´Ĵå®¶": 8224,
      "åĲİäººæľīè¯Ĺèµŀ": 8225,
      "ç¹ģ": 8226,
      "å¦¥å½ĵ": 8227,
      "form": 8228,
      "èĢ¿æģŃ": 8229,
      "æ¾Ħ": 8230,
      "æģįæĥļ": 8231,
      "Ġdanger": 8232,
      "ĠTybalt": 8233,
      "Ġtender": 8234,
      "æĥ³äºĨä¸Ģæĥ³": 8235,
      "Ġmajesty": 8236,
      "FF": 8237,
      "use": 8238,
      "ĠæŃ¤æĹ¶": 8239,
      "å¤¯": 8240,
      "ä¸įå¹²": 8241,
      "ä¸įçŃĶ": 8242,
      "ä¸įç¦»": 8243,
      "ä¸ĢéĺŁ": 8244,
      "è¯¾": 8245,
      "è¯Ĭ": 8246,
      "åį¤": 8247,
      "åįĳ": 8248,
      "æĺ¯äºĨ": 8249,
      "æĪĳèĻ½": 8250,
      "æī³": 8251,
      "èµĭ": 8252,
      "åİ»è§ģ": 8253,
      "æķĽ": 8254,
      "åľ¨å½¼": 8255,
      "å¸Į": 8256,
      "åŃĲåŃĻ": 8257,
      "Ġsin": 8258,
      "æĭŃ": 8259,
      "å°Ĩè¿ĳ": 8260,
      "å°Ĩèº«ä¸Ģ": 8261,
      "åº¸": 8262,
      "åıĪéĹ®éģĵ": 8263,
      "åĩºæ¦ľ": 8264,
      "ä¾¿ä»¤": 8265,
      "æĹ¥ä¹ħ": 8266,
      "å¤´éĻĢ": 8267,
      "å§¿": 8268,
      "æŃ¤ä¸Ģ": 8269,
      "æŃ¤å±±": 8270,
      "ä¸īåĪĨ": 8271,
      "å½Ŀ": 8272,
      "åĽŀè¿ĩ": 8273,
      "å¥½å¥½": 8274,
      "ä¸¤åĳĺ": 8275,
      "èĢģå¸ĪçĪ¶": 8276,
      "æĹłè¨Ģ": 8277,
      "éĿ¢å¦Ĥ": 8278,
      "æŃ£èĩª": 8279,
      "åĿĩ": 8280,
      "ç¥Ł": 8281,
      "æĮ¤": 8282,
      "Ġtold": 8283,
      "èµ°åħ¥": 8284,
      "çĦķ": 8285,
      "çĽ¸ä¼¼": 8286,
      "éħĨ": 8287,
      "åħ¥å®«": 8288,
      "èĢĮåĿĲ": 8289,
      "æĿİåĬ©": 8290,
      "éķ¿åı²": 8291,
      "åĽłä»ĸ": 8292,
      "å®ĺåĥļ": 8293,
      "çĲª": 8294,
      "èĲĮ": 8295,
      "åĢĴè±¡": 8296,
      "æĹ©è¢«": 8297,
      "åĲ¾å½ĵ": 8298,
      "å¾ĢéĤ£éĩĮåİ»": 8299,
      "ä¼ļæĦı": 8300,
      "å®ļæĺ¯": 8301,
      "éĹ»è¯´": 8302,
      "æĽ¹æŃ£": 8303,
      "æ¡©": 8304,
      "åĽ½åºľ": 8305,
      "æĸĩæģŃ": 8306,
      "ĠSp": 8307,
      "åĪ«è¯´": 8308,
      "å¾ħä»ĸ": 8309,
      "ä¸įå¾Ĺå·²": 8310,
      "æĴŃ": 8311,
      "éĺµéĩĮ": 8312,
      "æķĳåĩº": 8313,
      "å¿½éĹ»": 8314,
      "æĿ¾æŀĹ": 8315,
      "èĪ¹æĿ¥": 8316,
      "å¿«å¿«": 8317,
      "ç¬¬åĽĽ": 8318,
      "èģĬ": 8319,
      "åºĦéĻ¢": 8320,
      "å¿µä¹¦": 8321,
      "æĢĴæ°Ķ": 8322,
      "å½ĴéĻį": 8323,
      "å¾Ħå¾Ģ": 8324,
      "æµ·æ£ł": 8325,
      "æŃ£æĺ¯éĤ£": 8326,
      "Ġseen": 8327,
      "Ġsure": 8328,
      "åı²æĸĩæģŃ": 8329,
      "äºĮåįģä¸ª": 8330,
      "äºĮåįģä½Ļ": 8331,
      "ç´§ç´§": 8332,
      "å¢ŀ": 8333,
      "æģ¯æĢĴ": 8334,
      "æłĳæľ¨": 8335,
      "æĸŃäºĨ": 8336,
      "æĳĨåĪĹ": 8337,
      "èĳ£æī¿": 8338,
      "å±ħæ°ĳ": 8339,
      "éĢĥåĳ½": 8340,
      "ç¯·": 8341,
      "LIFF": 8342,
      "éļĲéļĲ": 8343,
      "å°ıå¦ĸéģĵ": 8344,
      "Ġsave": 8345,
      "åĨĽå¸ĪåĲ´çĶ¨": 8346,
      "çĭ¼çīĻ": 8347,
      "æ§½": 8348,
      "Ġfoot": 8349,
      "Ġdays": 8350,
      "Ġwarrant": 8351,
      "UMBER": 8352,
      "è·ªä¸ĭéģĵ": 8353,
      "like": 8354,
      "THUMBER": 8355,
      "çįĲ": 8356,
      "èįĢå½§": 8357,
      "Ġwoe": 8358,
      "ä¼¶ä¿Ĳ": 8359,
      "ĠNORTHUMBER": 8360,
      "å¼¼é©¬": 8361,
      "ĠNORTHUMBERLAND": 8362,
      "ID": 8363,
      "TA": 8364,
      "ting": 8365,
      "éī": 8366,
      "ĠåĨįè¯´": 8367,
      "ãĢĲ": 8368,
      "ä¸įæ¯Ķ": 8369,
      "ä¸Ģåįģ": 8370,
      "çļĦå¤§": 8371,
      "æĪĳäºĨ": 8372,
      "æĪĳåĳ¢": 8373,
      "æĽľ": 8374,
      "ä¸Ĭè½¦": 8375,
      "è´ŀ": 8376,
      "åıªéĻ¤": 8377,
      "Ġsad": 8378,
      "åıĪä¸įå¥½": 8379,
      "ç»Ĵ": 8380,
      "rem": 8381,
      "äºĮåŃĲ": 8382,
      "å®ĿåĪĢ": 8383,
      "èĥ§": 8384,
      "ä»Ĭèĭ¥": 8385,
      "åı¯æľī": 8386,
      "åį´ä¸įçŁ¥": 8387,
      "æĻĴ": 8388,
      "èµ°è¿ĩ": 8389,
      "åľ°åĲį": 8390,
      "éķ¿åŃĲ": 8391,
      "å®ĭæ±ŁåĨĽé©¬": 8392,
      "èĤĭ": 8393,
      "Ġgener": 8394,
      "åĲĥäºĽ": 8395,
      "éĩĳçĿĽ": 8396,
      "åŃĻåĿļ": 8397,
      "æŃ»æ´»": 8398,
      "æ°´å¸ĺ": 8399,
      "çķĶ": 8400,
      "å¿ħæĿ¥": 8401,
      "æķ¢æĿ¥": 8402,
      "å¤«å¦ĩ": 8403,
      "éĤ£éĩĮçŁ¥éģĵ": 8404,
      "é¢ĨåĨĽ": 8405,
      "åĩłä¹İ": 8406,
      "æĭ¿å¾Ĺ": 8407,
      "åĲ¾æ¬²": 8408,
      "äºĨä¸Ģåľº": 8409,
      "æı£": 8410,
      "æīĢåľ¨": 8411,
      "æ®Ĭ": 8412,
      "æ£¹": 8413,
      "ä¹Łä¸įå¥½": 8414,
      "çıª": 8415,
      "å°ļæľī": 8416,
      "æĽ´åĬł": 8417,
      "é»Ħå·¾": 8418,
      "çľ¼èī²": 8419,
      "è¿Ļä¸ªäºº": 8420,
      "ä¹īæ°Ķ": 8421,
      "ä½Ĩåıªæĺ¯": 8422,
      "ĠLu": 8423,
      "ides": 8424,
      "idow": 8425,
      "ä¸ĢéĿ¢åıĪ": 8426,
      "ä¸ĥåįģäºĮ": 8427,
      "ĠPl": 8428,
      "åħŃä¸ª": 8429,
      "æĻļäºĨ": 8430,
      "åĮĹåĨĽ": 8431,
      "åĮĹéĿĻ": 8432,
      "å¿µä½Ľ": 8433,
      "æ»¡å¿ĥ": 8434,
      "ä¸ĸä¹ĭ": 8435,
      "åľŁåħµ": 8436,
      "Ġdoes": 8437,
      "è®¤çľŁ": 8438,
      "æŃĩæŃĩ": 8439,
      "çŁ¥éģĵçļĦ": 8440,
      "è¸ħ": 8441,
      "æĭĽè®¨": 8442,
      "åĨĻéģĵ": 8443,
      "èŁĴ": 8444,
      "çĨĬ": 8445,
      "èµ·èº«æĿ¥": 8446,
      "æĦŁæ¿Ģ": 8447,
      "å³ª": 8448,
      "åĩ¤å§ĲåĦ¿ç¬ĳéģĵ": 8449,
      "ä¸¢ä¸ĭ": 8450,
      "å½¢å®¹": 8451,
      "åĵ¨é©¬": 8452,
      "åĵ¨æİ¢": 8453,
      "åı±æĽ°": 8454,
      "åķ¼åĵŃ": 8455,
      "Ġreport": 8456,
      "åŃ½çķľ": 8457,
      "çŃĭæĸĹäºĳ": 8458,
      "ä½łèĢģäººå®¶": 8459,
      "æīĪä¸īå¨ĺ": 8460,
      "Ġreturn": 8461,
      "Ġmercy": 8462,
      "Ġfarewell": 8463,
      "éī´": 8464,
      "dom": 8465,
      "ring": 8466,
      "up": 8467,
      "Ġä»ĸ": 8468,
      "Ġä¸ĢæĹ¥": 8469,
      "ãĢĳ": 8470,
      "åħĸ": 8471,
      "ä¸įæĹ¶": 8472,
      "ä¸Ģæ£Ĵ": 8473,
      "äººåıĤ": 8474,
      "çļĦæīĭ": 8475,
      "çļĦä¸Ģä¸ª": 8476,
      "æĺ¯çĶļä¹Ī": 8477,
      "hes": 8478,
      "éĤ£å¤§åľ£": 8479,
      "éĤ£ä¸«å¤´": 8480,
      "è¯´ä»Ģä¹Ī": 8481,
      "å¤§ä¹ī": 8482,
      "æķ·": 8483,
      "ä¹ĭåĭĩ": 8484,
      "åľ¨ä¸ĭ": 8485,
      "å·³": 8486,
      "è´©": 8487,
      "æ±ª": 8488,
      "åıĪä¸įæĺ¯": 8489,
      "ä¾¿å°±": 8490,
      "ä¾¿å®ľ": 8491,
      "rel": 8492,
      "è®³": 8493,
      "åĦ¿ä¹Ł": 8494,
      "å¥½å§Ĳå§Ĳ": 8495,
      "ä¸¤åı¥": 8496,
      "å®¶ç§ģ": 8497,
      "äºĮä¸īåįģ": 8498,
      "èĢģå®ŀ": 8499,
      "å°ıå°ĨåĨĽ": 8500,
      "å°ıæ²Ľ": 8501,
      "ä¸İéĤ£": 8502,
      "ä½ķæĹ¶": 8503,
      "èĭĳ": 8504,
      "åı¯å¾Ĺ": 8505,
      "åį´æĢİä¹Ī": 8506,
      "ä¸ºå¤´": 8507,
      "æŃ£å½ĵ": 8508,
      "çģ¿": 8509,
      "Ġtogether": 8510,
      "èµ°èĩ³": 8511,
      "åħĪåīį": 8512,
      "æł½": 8513,
      "åĮº": 8514,
      "ä½ıé©¬": 8515,
      "éķ¿çŁŃ": 8516,
      "è¯·ä»ĸ": 8517,
      "æ²¡ä¸ª": 8518,
      "åħ«ä¸ª": 8519,
      "ä»İå°ıåĦ¿": 8520,
      "æĤļ": 8521,
      "ä½ľæĢª": 8522,
      "äºĨä¸ĢæĹ¥": 8523,
      "çĪ·ä»¬": 8524,
      "åį³åĪ»": 8525,
      "æŀĹåŃĲéĩĮ": 8526,
      "æ£ļ": 8527,
      "æĴĤ": 8528,
      "æİ¥åħ¥": 8529,
      "é»ĦéĹ¨": 8530,
      "éļıè¡Į": 8531,
      "Ġwithout": 8532,
      "æĿ¾æłĳ": 8533,
      "åĲĪåħµ": 8534,
      "éĩįåĽ´": 8535,
      "çī©ä»¶": 8536,
      "è°¢éģĵ": 8537,
      "ä»Ļæ°Ķ": 8538,
      "Ġdeep": 8539,
      "èİ«è¦ģ": 8540,
      "èĸĽéľ¸": 8541,
      "åıĬèĩ³": 8542,
      "å½Ĵé¡º": 8543,
      "ç¨½": 8544,
      "åĮĸæĸĭ": 8545,
      "ç³Ł": 8546,
      "è¯īè¯´": 8547,
      "ters": 8548,
      "earn": 8549,
      "æ¥¼ä¸ĭ": 8550,
      "é¼ĵåĵį": 8551,
      "æĶ»ä¹ĭ": 8552,
      "çİ°ä»Ĭ": 8553,
      "åĲĥäºĨé¥Ń": 8554,
      "å¹¸äºı": 8555,
      "æī§äºĭ": 8556,
      "åĨ·ç¬ĳ": 8557,
      "Ġgold": 8558,
      "åĶ¬å¾ĹéĤ£": 8559,
      "æĮĳæĭħ": 8560,
      "å·§å§Ĳ": 8561,
      "å¤ıä¾¯éľ¸": 8562,
      "æĻģçĽĸéģĵ": 8563,
      "èĪŀåĪĢ": 8564,
      "å¸ħåºľ": 8565,
      "å½±éĩĮ": 8566,
      "åĪĨä»ĺæĽ°": 8567,
      "åļ·éģĵ": 8568,
      "unes": 8569,
      "æıŃèµ·": 8570,
      "ĠThough": 8571,
      "Ġmarry": 8572,
      "Ġheavy": 8573,
      "ä¸«é¬Łä»¬": 8574,
      "ç¬¬äºĮä¸ª": 8575,
      "ĠANNE": 8576,
      "æ¢¢åħ¬": 8577,
      "é²įäºĮ": 8578,
      "æ®·åĭ¤": 8579,
      "çķľçĶŁ": 8580,
      "è§ĤéŁ³èı©èĲ¨": 8581,
      "ĠæĿ¨å¿Ĺéģĵ": 8582,
      "ç»Ĩç»ĨçļĦ": 8583,
      "Ġpurpose": 8584,
      "Ġthrough": 8585,
      "RINC": 8586,
      "aim": 8587,
      "bl": 8588,
      "ca": 8589,
      "cher": 8590,
      "ict": 8591,
      "vent": 8592,
      "ç¸": 8593,
      "Ġill": 8594,
      "ĠäºĮäºº": 8595,
      "Ġé²ģè¾¾": 8596,
      "ï¼ĮâĢĶâĢĶ": 8597,
      "ä¸įä¼¼": 8598,
      "ä¸įåłª": 8599,
      "ä¸Ģå¹¶": 8600,
      "ä¸Ģå®µ": 8601,
      "éģĵè·¯": 8602,
      "éĹ°": 8603,
      "éĤ£æł·": 8604,
      "æľīè¯Ŀ": 8605,
      "è¯´çĬ¹æľªäºĨ": 8606,
      "ä½łåľ¨": 8607,
      "å¤§æĸ§": 8608,
      "æķĸ": 8609,
      "ä¸Ĭæ¥¼": 8610,
      "ä¹ĭåĳ½": 8611,
      "å¹ķ": 8612,
      "ä¾¿å·®": 8613,
      "åĨĽä»¤": 8614,
      "å¤´åıĳ": 8615,
      "åĪ°å®¶": 8616,
      "èĩªä¸º": 8617,
      "å°ıäºĭ": 8618,
      "å¤©éĹ¨": 8619,
      "çľĭæ¯ķ": 8620,
      "èµ·å¤Ħ": 8621,
      "å±±ç¥ŀ": 8622,
      "ä¸ºæĪĳ": 8623,
      "Ġcho": 8624,
      "Ġcold": 8625,
      "Ġnurse": 8626,
      "æĻ¶": 8627,
      "é¢Ī": 8628,
      "å®ĭåĨĽ": 8629,
      "åĶ¿": 8630,
      "è¨Ģä¹ĭ": 8631,
      "åĪĨäºĨ": 8632,
      "Ġgrow": 8633,
      "è¯·åĿĲ": 8634,
      "ç©Ĺ": 8635,
      "æ°´ä¸Ń": 8636,
      "ç²Ĵ": 8637,
      "åĲĦèī²": 8638,
      "é«ĺä½İ": 8639,
      "èĬ±åĽŃ": 8640,
      "æľªè¿Ł": 8641,
      "çĻ¾åįģ": 8642,
      "çľŁç»ı": 8643,
      "çľŁåĲĽ": 8644,
      "æħ¨": 8645,
      "æľĽç©º": 8646,
      "éĢģä»ĸ": 8647,
      "ĠHad": 8648,
      "å°½åĬĽ": 8649,
      "çĻ½èĻİ": 8650,
      "ĠMont": 8651,
      "æķ°ä¸ĩ": 8652,
      "çĽ´å¥Ķ": 8653,
      "æĴ©": 8654,
      "é½Ĳå£°": 8655,
      "çŀª": 8656,
      "è¯¸åĨĽ": 8657,
      "Ġrec": 8658,
      "ĠPRINC": 8659,
      "æıĲåĪĢ": 8660,
      "æĺŁå®ĺ": 8661,
      "åĬŁåĬ³": 8662,
      "æŀªåĪĢ": 8663,
      "å¾Ħåħ¥": 8664,
      "åħ´åĦ¿": 8665,
      "ifford": 8666,
      "ä¸Ģå£°çĤ®åĵį": 8667,
      "æĹ§æĹ¥": 8668,
      "åĬĿè§£": 8669,
      "Ġlost": 8670,
      "èµıåĬ³": 8671,
      "è¿Ļä¸Ģåİ»": 8672,
      "å¹³åĦ¿ç¬ĳéģĵ": 8673,
      "ERD": 8674,
      "æĮĤçĿĢ": 8675,
      "æĳĨå¸ĥ": 8676,
      "æĳĩæĹĹ": 8677,
      "æģ¨ä¸įå¾Ĺ": 8678,
      "è¿ĻäºĽè¯Ŀ": 8679,
      "åĮ¹å¤«": 8680,
      "ä»ĺä¸İ": 8681,
      "ä»ģåħĦ": 8682,
      "åį¢ä¿Ĭä¹īéģĵ": 8683,
      "éĻªè¯Ŀ": 8684,
      "æĺŃå¾·": 8685,
      "å·§å§ĲåĦ¿": 8686,
      "æĭĶå¯¨": 8687,
      "ç¯¡": 8688,
      "æİ¢æĺ¥ç¬ĳéģĵ": 8689,
      "ç¾İäºº": 8690,
      "åĪĺå§¥å§¥éģĵ": 8691,
      "ä»£åĦĴ": 8692,
      "çīµé©¬": 8693,
      "ignior": 8694,
      "è¯Īè´¥": 8695,
      "èıľèĶ¬": 8696,
      "çĶ³å¥ı": 8697,
      "ĠClifford": 8698,
      "Ġears": 8699,
      "Ġdeser": 8700,
      "ments": 8701,
      "æ¢ħèĬ±": 8702,
      "é¡·åĪ»": 8703,
      "èĢģéŃĶéģĵ": 8704,
      "æĻ¦æ°Ķ": 8705,
      "Ġperson": 8706,
      "Ġstrange": 8707,
      "ĠJuliet": 8708,
      "ĠPRINCE": 8709,
      "az": 8710,
      "mer": 8711,
      "Ġä¸Ķ": 8712,
      "ä¸įåĽŀ": 8713,
      "æĪİ": 8714,
      "ä¸Ģå¤§": 8715,
      "ä¸ĢçĶŁ": 8716,
      "ä¸Ģé¡¶": 8717,
      "Ġtimes": 8718,
      "æĺ¯ä»Ģä¹Ī": 8719,
      "æĪĳèĩªæľī": 8720,
      "æľīè¶£": 8721,
      "ä»ĸåĢĴ": 8722,
      "è¯´æĿ¥": 8723,
      "è¯´çļĦæĺ¯": 8724,
      "ä½łä¸įçŁ¥": 8725,
      "å¤§ä¸Īå¤«": 8726,
      "è¿ĻæĹ¥": 8727,
      "ä¸Ĭåİħ": 8728,
      "éĩĮåİ»äºĨ": 8729,
      "å°Ĩæģ¯": 8730,
      "Ġwat": 8731,
      "ä¸īå§Ĳ": 8732,
      "ä¸¤ä¸ī": 8733,
      "ä¸¤çıŃ": 8734,
      "äºĮå¹´": 8735,
      "èĢģå¬·å¬·": 8736,
      "æ²Ł": 8737,
      "oriol": 8738,
      "å°ıé¾Ļ": 8739,
      "å°ıç«¥": 8740,
      "çİĭçĪ·": 8741,
      "èĭĹ": 8742,
      "èµ·è¡Į": 8743,
      "å±±è°·": 8744,
      "æģ¤": 8745,
      "ä¸ºå¤§": 8746,
      "æĹłå¤Ħ": 8747,
      "è¿ĩå±±": 8748,
      "çº¯": 8749,
      "èº«éķ¿": 8750,
      "ĠTell": 8751,
      "å½ĵå¤´": 8752,
      "æĿİç«ĭ": 8753,
      "ä¸Ķèİ«": 8754,
      "æµĬ": 8755,
      "ingbroke": 8756,
      "åĲĥä¸Ģ": 8757,
      "èĩ³äºİ": 8758,
      "éĩĳå¤§": 8759,
      "åģļå¾Ĺ": 8760,
      "æŃ»ç½ª": 8761,
      "åĨįåĽŀ": 8762,
      "è¥¿åİ»": 8763,
      "å·ŀåŁİ": 8764,
      "åħ¶å¿ĥ": 8765,
      "æĹ©æĬĬ": 8766,
      "ceed": 8767,
      "æŃ¦ä¾¯": 8768,
      "ä¼ļåĲĪ": 8769,
      "æı¡": 8770,
      "æħ§": 8771,
      "éĢģä½ł": 8772,
      "ç¼¸": 8773,
      "ĠBol": 8774,
      "ĠMI": 8775,
      "èµ¶åİ»": 8776,
      "åįĬå¤©": 8777,
      "å®Īå°Ĩ": 8778,
      "ĠCam": 8779,
      "ours": 8780,
      "åĳĬè¾ŀ": 8781,
      "éļıçĿĢ": 8782,
      "æķĳä»ĸ": 8783,
      "enty": 8784,
      "éģĤå°Ĩ": 8785,
      "éĢĢåĨĽ": 8786,
      "é¼ĭ": 8787,
      "Ġask": 8788,
      "ä¼łä¸ĭ": 8789,
      "ä¾ĿæĪĳ": 8790,
      "ĠRi": 8791,
      "ross": 8792,
      "åĲĽçİĭ": 8793,
      "çħŀ": 8794,
      "Ġthyself": 8795,
      "æ¯Ķä¸įå¾Ĺ": 8796,
      "ush": 8797,
      "éĨĭ": 8798,
      "Ġsuff": 8799,
      "çģ¯ç¬¼": 8800,
      "é¥®å®´": 8801,
      "ç²®é£Ł": 8802,
      "åľ¨æŃ¤éĹ´": 8803,
      "æĸ©é¦ĸ": 8804,
      "èĽŁ": 8805,
      "ä¹ĺé©¬": 8806,
      "éĺ´åı¸": 8807,
      "æī¾å¯»": 8808,
      "éĻªç¬ĳ": 8809,
      "èĶ¡å¤ªå¸Ī": 8810,
      "ç´«é¹ĥéģĵ": 8811,
      "ç¿łç¼ķ": 8812,
      "æ£įåŃĲ": 8813,
      "Ġpluck": 8814,
      "åĽ¢åĽ¢": 8815,
      "æĺİçĻ½äºĨ": 8816,
      "Ġdisp": 8817,
      "å®½å¿ĥ": 8818,
      "æľ±ä»Ŀéģĵ": 8819,
      "çĭ¼ä¸»": 8820,
      "åħ·è¨Ģ": 8821,
      "æĭ½å¼Ģ": 8822,
      "åĩĮæĮ¯": 8823,
      "æĮ£æīİ": 8824,
      "ä¸įåĪĨèĥľè´Ł": 8825,
      "Ġliege": 8826,
      "è¯·äºĨå®ī": 8827,
      "èĩªåı¤éģĵ": 8828,
      "åĬªåĬĽ": 8829,
      "Ġbelieve": 8830,
      "Ġspirit": 8831,
      "å¼¼é©¬æ¸©": 8832,
      "ĠBolingbroke": 8833,
      "ever": 8834,
      "ĠæĹ¶": 8835,
      "ĠåİŁæĿ¥": 8836,
      "Ġæ¢ģä¸Ńä¹¦": 8837,
      "äºĨå¾Ĺ": 8838,
      "äºĨæīĭ": 8839,
      "ä½Ĺ": 8840,
      "ä¸įè®¤å¾Ĺ": 8841,
      "ä¸įèĩªåľ¨": 8842,
      "ä¸Ģç°ĩ": 8843,
      "ä¸Ģå¹Į": 8844,
      "æĿ¥å¾Ĺ": 8845,
      "æĿ¥ä½¿": 8846,
      "äººå¿ĥ": 8847,
      "èĢĥ": 8848,
      "åİ»æīĵ": 8849,
      "æľīäºĶ": 8850,
      "è¯´ä¸İ": 8851,
      "è¯´ä¸įäºĨ": 8852,
      "ä½łèĩª": 8853,
      "ä½łåıªç®¡": 8854,
      "å¤§èµ·": 8855,
      "å¤§åı«éģĵ": 8856,
      "æķı": 8857,
      "ä¸Ĭè¡¨": 8858,
      "ï¼ģâĢĻ": 8859,
      "è§ģä»Ĭ": 8860,
      "è§ģéĿ¢": 8861,
      "ä¹ĭå¾Ĵ": 8862,
      "ä¹ĭä»ĩ": 8863,
      "Ġair": 8864,
      "Ġage": 8865,
      "çĿ¬": 8866,
      "è´¡": 8867,
      "åıªçķĻ": 8868,
      "åıªåī©": 8869,
      "Ġsil": 8870,
      "åºı": 8871,
      "åºļ": 8872,
      "åıĪåĪ°": 8873,
      "åıĪä¸İ": 8874,
      "ä¾¿ç¬ĳéģĵ": 8875,
      "ä¾¿å¾Ģ": 8876,
      "é©¬å¿ł": 8877,
      "çŃ¾": 8878,
      "è¡Įä¸įåĪ°": 8879,
      "ä¸īéĺ®": 8880,
      "è¾ĩ": 8881,
      "éĥ½åİ»": 8882,
      "èĢģå¸Ī": 8883,
      "åħµè´¥": 8884,
      "å¤©æĻĵ": 8885,
      "çİĭä¼¦": 8886,
      "éĻĭ": 8887,
      "ä»ĬåıĪ": 8888,
      "äºĭåĬ¡": 8889,
      "çŃīä¼Ĺ": 8890,
      "åįģæĹ¥": 8891,
      "æīĵæĿĢ": 8892,
      "Ġlearn": 8893,
      "éĽĮ": 8894,
      "éĽĴ": 8895,
      "èĪ±": 8896,
      "èĪĢ": 8897,
      "èº«æ³ķ": 8898,
      "æīĭæĮģ": 8899,
      "è¿ĺå¥½": 8900,
      "åĶ§": 8901,
      "åĶĨ": 8902,
      "èį«": 8903,
      "ä¸Ģä¸ªå¤§": 8904,
      "ĠAway": 8905,
      "Ġheir": 8906,
      "å¼łæĭĽè®¨": 8907,
      "è·¯ç¨ĭ": 8908,
      "å¤ļè¨Ģ": 8909,
      "èĦ¾": 8910,
      "æ°´å¯¨": 8911,
      "ĠWh": 8912,
      "åĥ§éģĵ": 8913,
      "åĨįä½ľ": 8914,
      "åĿĲä¸Ģ": 8915,
      "æĵįä»¤": 8916,
      "åħ¶ä¸Ń": 8917,
      "ä½ľè¯Ĺ": 8918,
      "æĥ³å¿ħ": 8919,
      "åħ³éĹ¨": 8920,
      "äºĨä¸Ģè·³": 8921,
      "å¾ĢæĹ¥": 8922,
      "æ¢Ĩ": 8923,
      "ets": 8924,
      "æĢ¥ä»¤": 8925,
      "æĸĩå®ĺ": 8926,
      "é¸Ń": 8927,
      "è¿ŀç´¯": 8928,
      "å¥³çİĭ": 8929,
      "ĠSome": 8930,
      "ĠSignior": 8931,
      "çĹ°": 8932,
      "çĸ²": 8933,
      "ĠHa": 8934,
      "å¸ĪçĪ¶åķĬ": 8935,
      "çŁ³ä¸Ĭ": 8936,
      "ç¾¡": 8937,
      "é½Ĳåĩº": 8938,
      "éģĤä¸İ": 8939,
      "ä¼ıåľ¨": 8940,
      "å¹²äºº": 8941,
      "åıĺåģļä¸ª": 8942,
      "è®®è®º": 8943,
      "å¥ıéĹ»": 8944,
      "è´¥æ®ĭ": 8945,
      "ains": 8946,
      "çĿ¡ä¸ĭ": 8947,
      "ä¹ĿåĽŀ": 8948,
      "è½¦ä¸Ĭ": 8949,
      "æ®¿åīį": 8950,
      "ift": 8951,
      "æĪĸæľī": 8952,
      "è¸Į": 8953,
      "Ġloss": 8954,
      "å¼ºçĽĹ": 8955,
      "çĨı": 8956,
      "çķªå°Ĩ": 8957,
      "è®¨è´¼": 8958,
      "åŀĴ": 8959,
      "å¾Ĵå¼ŁåķĬ": 8960,
      "Ġsays": 8961,
      "å£ģä¸Ĭ": 8962,
      "ç¼ĺæķħ": 8963,
      "Ġjo": 8964,
      "è¤¥": 8965,
      "ä¾Ľåħ»": 8966,
      "åŁĭæĢ¨": 8967,
      "Ġpoint": 8968,
      "èµĮæ°Ķ": 8969,
      "æī®ä½ľ": 8970,
      "æ²īåĲŁ": 8971,
      "ĠWhose": 8972,
      "åľĪåŃĲ": 8973,
      "æ¸Ĳæ¸ĲçļĦ": 8974,
      "ĠOne": 8975,
      "æ¨µåŃĲ": 8976,
      "çĮİæĪ·": 8977,
      "ĠShould": 8978,
      "åĴ³åĹ½": 8979,
      "åŀĵå¿ĥ": 8980,
      "æľ¦èĥ§": 8981,
      "aid": 8982,
      "ial": 8983,
      "ner": 8984,
      "sh": 8985,
      "Ġè¯Ŀ": 8986,
      "Ġä¸īèĹı": 8987,
      "Ġé²ģæĻºæ·±": 8988,
      "ä¸įå¹³": 8989,
      "ä¸Ģä¸ĭ": 8990,
      "ä¸Ģåī¯": 8991,
      "è¯§": 8992,
      "éģĵç«¥": 8993,
      "çļĦæĿ¥": 8994,
      "åĪ·": 8995,
      "æĪĳåĽł": 8996,
      "æĪĳèĢģåŃĻ": 8997,
      "å¥ł": 8998,
      "ä»ĸæĢİä¹Ī": 8999,
      "ä½łäºĨ": 9000,
      "ä½łå¦Ĥä»Ĭ": 9001,
      "å¤§åĸĿéģĵ": 9002,
      "å¾Ĺè¿ĩ": 9003,
      "éĩĮçļĦ": 9004,
      "çĶ¥": 9005,
      "åľ¨åºĬä¸Ĭ": 9006,
      "ä¸ĭå¤Ħ": 9007,
      "ä¹Łç®Ĺ": 9008,
      "åŃĲå¼Ł": 9009,
      "çĿĢçļĦ": 9010,
      "éĢ¸": 9011,
      "çŃı": 9012,
      "Ġbat": 9013,
      "å½°": 9014,
      "æĹ¶èĬĤ": 9015,
      "éĥ½å°ī": 9016,
      "èĢģéģĵ": 9017,
      "èĩªæĢĿ": 9018,
      "å¤©å¯¿": 9019,
      "çľĭæĪĳ": 9020,
      "åīįè¡Į": 9021,
      "å¤ªåĤħ": 9022,
      "ä½ķå¾Ģ": 9023,
      "Ġfly": 9024,
      "è¦ģä»ĸ": 9025,
      "å°±è¯´": 9026,
      "å±±åĩ¹": 9027,
      "æĹłçŁ¥": 9028,
      "èºĩ": 9029,
      "åĲİçĶŁ": 9030,
      "Ġcry": 9031,
      "æĻĶ": 9032,
      "Ġpast": 9033,
      "åħĪæĿ¥": 9034,
      "çĽ¸éĢ¢": 9035,
      "çĶŁè¾°": 9036,
      "æĸ¹çŁ¥": 9037,
      "è·¯åĨĽé©¬": 9038,
      "èĤ´": 9039,
      "åıĸèįĨå·ŀ": 9040,
      "æ°´æĿ¥": 9041,
      "åĨįä¸į": 9042,
      "å¿ħè¦ģ": 9043,
      "åĢĴå¥½": 9044,
      "æĶ¾åĩº": 9045,
      "ced": 9046,
      "å¹´å¹¼": 9047,
      "çĶļå¥½": 9048,
      "å¹³æĹ¥": 9049,
      "æīĢè°ĵ": 9050,
      "éĢģè¡Į": 9051,
      "ç¼©": 9052,
      "æĪĲç²¾": 9053,
      "å°½è¡Į": 9054,
      "èĹıäºĨ": 9055,
      "ĠCoriol": 9056,
      "éļıèº«": 9057,
      "ç©ºåĦ¿": 9058,
      "ä½Ĩä¸įçŁ¥": 9059,
      "éĻįè¯ı": 9060,
      "äº¦æĹł": 9061,
      "åıĺäºĨ": 9062,
      "æıĲéĺ²": 9063,
      "åĳ¨åĽ´": 9064,
      "ä¸ĸéĹ´": 9065,
      "æ¯Ķä¸ĺ": 9066,
      "èĦļä¸ĭ": 9067,
      "å®³äºĨ": 9068,
      "åıįè´¼": 9069,
      "ä¹Ĳè¿Ľ": 9070,
      "éĹ¹äºĨ": 9071,
      "çĵĺ": 9072,
      "åĳĨäºĨ": 9073,
      "é¼ĵè§Ĵ": 9074,
      "çĸĳå¿ĥ": 9075,
      "ç»ĵæĿŁ": 9076,
      "çĮ´åĦ¿": 9077,
      "é¬¼ç¥ŀ": 9078,
      "ä¹°äºĽ": 9079,
      "çħ§ç®¡": 9080,
      "åĳĬè¯īæĪĳ": 9081,
      "è°ĥåħµ": 9082,
      "èįĨè¥Ħ": 9083,
      "èĳ£è¶ħ": 9084,
      "ä¿®ä¹¦": 9085,
      "æĸĭåĥ§": 9086,
      "æĢĢéĩĮ": 9087,
      "åĹ£": 9088,
      "æĮĳäºĨ": 9089,
      "å¾ģè¿Ľ": 9090,
      "éķĩä¸Ĭ": 9091,
      "ä»įæĺ¯": 9092,
      "é¢ľèī¯": 9093,
      "èĨ³": 9094,
      "æĬ±ä½ı": 9095,
      "è´¢çī©": 9096,
      "ä¼¯éĴ¦": 9097,
      "Ġfriar": 9098,
      "Ġtrust": 9099,
      "èµĮæĸĹ": 9100,
      "æĢİçĶŁæīĵæī®": 9101,
      "éĻ©å³»": 9102,
      "æĭ³å¤´": 9103,
      "Ġdesire": 9104,
      "ä¼Ĺåĥ§éģĵ": 9105,
      "åĴ¬çīĻ": 9106,
      "çĦ¦èºģ": 9107,
      "Ġhaste": 9108,
      "éŀįé©¬": 9109,
      "æĭĨå¼Ģ": 9110,
      "é¼»åŃĲ": 9111,
      "æľªåı¯çŁ¥": 9112,
      "åĲ´åŃ¦ç©¶éģĵ": 9113,
      "Ġentreat": 9114,
      "è¸ªè¿¹": 9115,
      "æĭľä½Ľæ±Ĥç»ı": 9116,
      "Ġjustice": 9117,
      "Ġdevil": 9118,
      "åĹ³åĵŁ": 9119,
      "Ġinstru": 9120,
      "Ġground": 9121,
      "èĬĤåº¦ä½¿": 9122,
      "ĠFarewell": 9123,
      "åĮĹéĿĻçİĭ": 9124,
      "gu": 9125,
      "ges": 9126,
      "night": 9127,
      "âĴ": 9128,
      "Ġord": 9129,
      "Ġå¥½å¤§åľ£": 9130,
      "äºĴ": 9131,
      "ãĢĤâĢĶâĢĶ": 9132,
      "äºĨçļĦ": 9133,
      "ä¸įæŃ»": 9134,
      "æĿ¥å®¶": 9135,
      "çļĦå¾Ī": 9136,
      "åŃ£": 9137,
      "åĩ¯": 9138,
      "å¥ĸ": 9139,
      "ä½łæķ¢": 9140,
      "ä½łä¼ĳ": 9141,
      "å¤§éĹ¨": 9142,
      "å¤§ä¹¦": 9143,
      "è¿Ļè¡ĮèĢħ": 9144,
      "è¿Ļä»¶": 9145,
      "ä¸ĬèĪ¹": 9146,
      "æĢģ": 9147,
      "outh": 9148,
      "çĿĢé©¬": 9149,
      "Ġmur": 9150,
      "ina": 9151,
      "ined": 9152,
      "è®ª": 9153,
      "é©¬çĽ¸äº¤": 9154,
      "æĹ¥æľŁ": 9155,
      "è¡Įåĩ¶": 9156,
      "ä¸īæľĪ": 9157,
      "Ġbold": 9158,
      "åĪ°ä»ĸ": 9159,
      "åĽŀåİ»äºĨ": 9160,
      "äºĮåħ¬": 9161,
      "ä¸İåĲ¾": 9162,
      "ä¸İæ²Ļåĥ§": 9163,
      "Ġfound": 9164,
      "å°±æŃ¤": 9165,
      "åĸĤ": 9166,
      "åį´å¾Ĺ": 9167,
      "éĹ¨æĪ·": 9168,
      "åı«åĶ¤": 9169,
      "ä¼ĹåħĦå¼Ł": 9170,
      "Ġnear": 9171,
      "é¢ĳ": 9172,
      "èº«æĬ«": 9173,
      "Ġtoward": 9174,
      "æīĭå¸ķ": 9175,
      "èĻ¾": 9176,
      "çĶŁäºĭ": 9177,
      "èĢĮæĹł": 9178,
      "æµ¸": 9179,
      "éķ¿åı¹": 9180,
      "ä½¿åĳ½": 9181,
      "åģļçĶļ": 9182,
      "åħ«æľĪ": 9183,
      "æ°´è·¯": 9184,
      "é¦¥": 9185,
      "æ·Ŀ": 9186,
      "å¿ħå½ĵ": 9187,
      "å·ŀéĥ¡": 9188,
      "æĵįå¿ĥ": 9189,
      "åĢĴè¦ģ": 9190,
      "é¢ĨçĿĢ": 9191,
      "äºĨä¸Ģéĺµ": 9192,
      "é«ĺåĶĲ": 9193,
      "çģ«å®¶": 9194,
      "çģ«çĥ§": 9195,
      "çľŁçľŁ": 9196,
      "äº²å®¶": 9197,
      "æľĽä¹ŀ": 9198,
      "æĽ¹ä¼ĳ": 9199,
      "æĽ¹çĿ¿": 9200,
      "æ®ĵ": 9201,
      "æ£ĺ": 9202,
      "ĠSen": 9203,
      "çĹĬ": 9204,
      "æľ¬èº«": 9205,
      "èħĮ": 9206,
      "åįĬè·¯": 9207,
      "åĲ´ä¸»": 9208,
      "æĴķ": 9209,
      "çĤ¹å¿ĥ": 9210,
      "é½Ĳé¸£": 9211,
      "è°ģäºº": 9212,
      "æľĿå¤©": 9213,
      "ĠLike": 9214,
      "ĠFrance": 9215,
      "ä¸ĥåĽŀ": 9216,
      "ä¼ĳçŁ£": 9217,
      "åı¸å¾Ĵ": 9218,
      "æĢ§æĢ¥": 9219,
      "ĠPray": 9220,
      "é¹Ĭ": 9221,
      "è®®äºĭ": 9222,
      "èİ«ä¸įæĺ¯": 9223,
      "æģ©äºº": 9224,
      "å¿µéģĵ": 9225,
      "å½Ĵè·¯": 9226,
      "çł´ç»½": 9227,
      "å¾Ħå¥Ķ": 9228,
      "åłĤåīį": 9229,
      "éªĤæĽ°": 9230,
      "æĸĹåĪ°": 9231,
      "çģ¯åħī": 9232,
      "Ġfast": 9233,
      "èĶ½": 9234,
      "å¯Ĩä¹¦": 9235,
      "ĠéĤ£æ±ī": 9236,
      "åħĥå¦ĥ": 9237,
      "ç´łçŁ¥": 9238,
      "Ġvis": 9239,
      "ç®Ĺè®¡": 9240,
      "åĺ´éĩĮ": 9241,
      "èī¯æ°ĳ": 9242,
      "éĶ¦è¢į": 9243,
      "èģļä¼Ĺ": 9244,
      "èħ°ç³»": 9245,
      "è·ĳäºĨ": 9246,
      "aud": 9247,
      "ç»Īèº«": 9248,
      "åĢĺæľī": 9249,
      "ç¢ĹéħĴ": 9250,
      "èĢ¶å¾ĭ": 9251,
      "è¹¬": 9252,
      "aking": 9253,
      "èº²éģ¿": 9254,
      "åŀĤæ³ª": 9255,
      "çŁ¥åºľéģĵ": 9256,
      "æĿ¨éĽĦéģĵ": 9257,
      "æĭ´åľ¨": 9258,
      "Ġslain": 9259,
      "Ġbetw": 9260,
      "èĭıå·ŀ": 9261,
      "åı¤äººäºĳ": 9262,
      "ixt": 9263,
      "Ġservice": 9264,
      "Ġstraight": 9265,
      "Ġremember": 9266,
      "åĢĴæį¢åħ³æĸĩ": 9267,
      "çŁ³ç¢£": 9268,
      "è¸Įèºĩ": 9269,
      "è¯§å¼Ĥ": 9270,
      "FID": 9271,
      "IZ": 9272,
      "LE": 9273,
      "LOR": 9274,
      "UFID": 9275,
      "äºĨéĤ£": 9276,
      "äºĨä¸¤ä¸ª": 9277,
      "ä¸įæĪĺ": 9278,
      "ä¸įè§£": 9279,
      "ä¸įé¡¾": 9280,
      "ä¸įæĸĻ": 9281,
      "ä¸Ģå°ģ": 9282,
      "ä¸ĢçĽĺ": 9283,
      "è¯³": 9284,
      "æľĶ": 9285,
      "æĿ¥äºº": 9286,
      "æĿ¥çĽ¸": 9287,
      "äººäºĭ": 9288,
      "æĪĳåĪ°": 9289,
      "æĪĳä»ĬæĹ¥": 9290,
      "èĢ¸": 9291,
      "èµ¡": 9292,
      "å¥İ": 9293,
      "å¥ĳ": 9294,
      "åİ»çľĭ": 9295,
      "ä»ĸä¹Łä¸į": 9296,
      "è¿Ļçķª": 9297,
      "è§ģä¸Ģä¸ª": 9298,
      "ä¹ĭåĲį": 9299,
      "ä¹ĭçĬ¶": 9300,
      "å¾Ĺä¸Ģä¸ª": 9301,
      "å¾ĹæĦı": 9302,
      "åıªæľīä¸Ģ": 9303,
      "æĭļ": 9304,
      "å°Ĩæł¡": 9305,
      "è®¶": 9306,
      "åĨĽæł¡": 9307,
      "æŃ¤è´¼": 9308,
      "èĢģå¤«": 9309,
      "æ²ģ": 9310,
      "å°ıåŃ©åŃĲ": 9311,
      "åīįå¾Ģ": 9312,
      "çİĭå®ļ": 9313,
      "çİĭä»ģ": 9314,
      "ä½ķæĸ¹": 9315,
      "ä½ķæĦı": 9316,
      "åĲ¬ä»¤": 9317,
      "è¦ģè§ģ": 9318,
      "å¿ĥæħĮ": 9319,
      "çŃīä½ł": 9320,
      "åį´æľī": 9321,
      "Ġcurse": 9322,
      "æ±Łå±±": 9323,
      "åŁĥ": 9324,
      "èĬĴ": 9325,
      "è¿ĽéĢĢ": 9326,
      "ĠAUFID": 9327,
      "åħ¥åĪ°": 9328,
      "èĭ¥éĿŀ": 9329,
      "åĽĽåĽŀ": 9330,
      "oman": 9331,
      "æĿĢæķ£": 9332,
      "éĩĳéĻµ": 9333,
      "æ²¡èĦ¸": 9334,
      "éħĴèĩ³": 9335,
      "ä½¿æ£Ĵ": 9336,
      "éĶĦ": 9337,
      "ä»İéĤ£éĩĮ": 9338,
      "åĩłæ¬¡": 9339,
      "æĬ¥åħ¥": 9340,
      "ä¹¦æĪ¿": 9341,
      "åĲĮè¡Į": 9342,
      "åĸľçļĦ": 9343,
      "é£İå£°": 9344,
      "äº²äºĭ": 9345,
      "å¹³å®ī": 9346,
      "ution": 9347,
      "é¸¿": 9348,
      "ĠMessenger": 9349,
      "æķ°éĩĮ": 9350,
      "åįĹåĨĽ": 9351,
      "åįĹåĮĹ": 9352,
      "Ġwear": 9353,
      "å¯¹éĺµ": 9354,
      "æ¬¡æĹ©": 9355,
      "ç©ºéĩĮ": 9356,
      "å¯»ä»ĸ": 9357,
      "Ġstrong": 9358,
      "éĻįå°Ĩ": 9359,
      "è¿ĳä¾į": 9360,
      "ĠFLOR": 9361,
      "ĠGl": 9362,
      "çĬĴ": 9363,
      "ĠThese": 9364,
      "èģĴ": 9365,
      "åºĦéĹ¨": 9366,
      "å«Ķ": 9367,
      "å§ĳå¨ĺçļĦ": 9368,
      "æ»¡å¤©": 9369,
      "èĥĮåľ°éĩĮ": 9370,
      "æ¹¾": 9371,
      "å°īè¿Ł": 9372,
      "èĦļæŃ¥": 9373,
      "æľ±å¯Į": 9374,
      "èĮ¶é¥Ń": 9375,
      "æĸ°é²ľ": 9376,
      "åıĮæĸ§": 9377,
      "çĵ¢": 9378,
      "ç§°èµŀ": 9379,
      "æłĳä¸ĭ": 9380,
      "åķĨè®®æĽ°": 9381,
      "çŃĸåºĶ": 9382,
      "å¯ºä¸Ń": 9383,
      "ç»´æĽ°": 9384,
      "æĮīä¸ĭ": 9385,
      "éĤĵèĬĿ": 9386,
      "è£ħè½½": 9387,
      "éĤ¢çİĭ": 9388,
      "èĿĩ": 9389,
      "Ġquick": 9390,
      "èĩªçĦ¶æĺ¯": 9391,
      "åĮ»æ²»": 9392,
      "Ġmarried": 9393,
      "Ġalone": 9394,
      "åħ¸éŁ¦": 9395,
      "åľŁåľ°éģĵ": 9396,
      "èĮĥåħ¨": 9397,
      "éĴ¢åıī": 9398,
      "åĦģ": 9399,
      "ç»ĳç¼ļ": 9400,
      "å®¡éħį": 9401,
      "é»ĳæĹĭé£İæĿİéĢµ": 9402,
      "Ġhard": 9403,
      "æľīè¯Ĺä¸ºè¯ģè¯ĹæĽ°": 9404,
      "å¤§éĹ¹å¤©å®«": 9405,
      "Ġworthy": 9406,
      "Ġbeauty": 9407,
      "æĮīèĲ½äºĳå¤´": 9408,
      "IZEL": 9409,
      "ĠAUFIDIUS": 9410,
      "ĠFLORIZEL": 9411,
      "TON": 9412,
      "bs": 9413,
      "ning": 9414,
      "xt": 9415,
      "åıĽ": 9416,
      "ä»ĭ": 9417,
      "ä¸įå¼Ģ": 9418,
      "ä¸įè®º": 9419,
      "ä¸įå¼ĥ": 9420,
      "ä¸įè¨Ģè¯Ń": 9421,
      "ä¸Ģç¬ĳ": 9422,
      "ä¸Ģå®¿": 9423,
      "äººäºĨ": 9424,
      "Ġtouch": 9425,
      "æĪĳéĤ£éĩĮ": 9426,
      "æĪĳåİŁ": 9427,
      "ä»ĸéĤ£éĩĮ": 9428,
      "ä½łæĬĬ": 9429,
      "ä½łåĨį": 9430,
      "ä½łå¸ĪçĪ¶": 9431,
      "ä¸ĬåĿĲ": 9432,
      "æĭ·": 9433,
      "çĿĢäºº": 9434,
      "åĩºåĬĽ": 9435,
      "ç»ĩ": 9436,
      "Ġwoo": 9437,
      "å¹ħ": 9438,
      "é©¬è°¡": 9439,
      "åīĥ": 9440,
      "æŃ¤åľ°": 9441,
      "ä¸¤éĺµ": 9442,
      "èĢģåĴĮå°ļ": 9443,
      "å¤©æ°´": 9444,
      "å¤©ç¥ŀ": 9445,
      "ä¸İåħ«æĪĴ": 9446,
      "èĥŃ": 9447,
      "ä»Ĭè§ģ": 9448,
      "ä»ĬæľĿ": 9449,
      "Ġfit": 9450,
      "ithe": 9451,
      "åį´æĹ©": 9452,
      "ä¸ºæĺ¯": 9453,
      "æĬĬåĶĲåĥ§": 9454,
      "åĲİæĹ¥": 9455,
      "åĿŀ": 9456,
      "æĺİå¹´": 9457,
      "è´¾åºľ": 9458,
      "éĹ®æĹ¶": 9459,
      "Ġhu": 9460,
      "åħ¬æĽ°": 9461,
      "Ġopen": 9462,
      "å¸Īå¼Ł": 9463,
      "èĭ¥ä¸įæĺ¯": 9464,
      "åĽĽæĹ¶": 9465,
      "å®ĭæ±Łåľ¨": 9466,
      "Ġgrant": 9467,
      "äºĶè¡Į": 9468,
      "äºĶèī²": 9469,
      "éĩĳçĶ²": 9470,
      "éĩĳæ²Ļæ»©": 9471,
      "åħ«åį¦": 9472,
      "Ġbec": 9473,
      "èĲĿ": 9474,
      "ä»İèĢħ": 9475,
      "é«»": 9476,
      "let": 9477,
      "å¾ĢåĲİ": 9478,
      "åİŁèº«": 9479,
      "æľªå®ļ": 9480,
      "è¢«æĵĴ": 9481,
      "çĻ¾èĪ¬": 9482,
      "çľŁåģĩ": 9483,
      "äº²éļı": 9484,
      "æıī": 9485,
      "æĪĺæĪĺåħ¢åħ¢": 9486,
      "æĪĳä»¬ä¹Ł": 9487,
      "æĭľä¼ı": 9488,
      "ĠSee": 9489,
      "åįĥå¹´": 9490,
      "å®Īä½ı": 9491,
      "æ¬²è¦ģ": 9492,
      "æİ¥ä½ı": 9493,
      "æ¶¨": 9494,
      "åŃĶæĺİç¬ĳæĽ°": 9495,
      "æĥĬæģĲ": 9496,
      "çĤ¹åŃĲ": 9497,
      "æļĩ": 9498,
      "é½Ĳæķ´": 9499,
      "æ¬¡åĲİ": 9500,
      "adam": 9501,
      "åĲĪæ·Ŀ": 9502,
      "å©Ĩæĥľ": 9503,
      "çĬĢ": 9504,
      "Ġready": 9505,
      "ä¸ĥæĺŁ": 9506,
      "é¹¦": 9507,
      "ION": 9508,
      "åĬŁåĲį": 9509,
      "åĬŁæĽ¹": 9510,
      "åıĬæĹ¶": 9511,
      "ç¨»": 9512,
      "æŃĩä¸ĭ": 9513,
      "çļĩçĶ«": 9514,
      "å¾Ĳåº¶": 9515,
      "éĻ¢éķ¿": 9516,
      "æĹ§è·¯": 9517,
      "åĬĿä»ĸ": 9518,
      "å¢ĵ": 9519,
      "åĳĨåĳĨ": 9520,
      "çİ°åĩº": 9521,
      "å®ģåºľ": 9522,
      "çħ§çľĭ": 9523,
      "æºº": 9524,
      "æ½Ń": 9525,
      "æķ´æķ´": 9526,
      "ç»įæĽ°": 9527,
      "çĻ»æĹ¶": 9528,
      "èĶ¡ä¹Ŀ": 9529,
      "åĪĩä¸įåı¯": 9530,
      "Ġbrought": 9531,
      "åĨ³ä¸į": 9532,
      "ured": 9533,
      "è¿Ļä¹Īè¯´": 9534,
      "å¤ıä¾¯æ¥Ļ": 9535,
      "è¡ĹäºŃ": 9536,
      "è¡ĹåĿĬ": 9537,
      "éŃĤé£ŀ": 9538,
      "æĻ´éĽ¯éģĵ": 9539,
      "åĽ¢ç»ĥ": 9540,
      "æį§çĿĢ": 9541,
      "Ġposs": 9542,
      "çĪ¬èµ·æĿ¥": 9543,
      "ĠClaud": 9544,
      "Ġexec": 9545,
      "å¸ĸåĦ¿": 9546,
      "æįĨäºĨ": 9547,
      "ä¸įåĪĨèĥľè´¥": 9548,
      "Ġrun": 9549,
      "åĵĪåĵĪ": 9550,
      "éĴµçĽĤ": 9551,
      "Ġenemy": 9552,
      "åħĢé¢ľç»ŁåĨĽ": 9553,
      "Ġrevenge": 9554,
      "ĠæĭĶæ¶Ľ": 9555,
      "æĿŃå·ŀ": 9556,
      "Ġgeneral": 9557,
      "æ°´å¸ĺæ´ŀ": 9558,
      "åħĸå·ŀ": 9559,
      "éĩĳå¤§åĿļ": 9560,
      "ĠClaudio": 9561,
      "!'": 9562,
      "gs": 9563,
      "ible": 9564,
      "¸æ°´": 9565,
      "½åŃĲ": 9566,
      "ĠåıĪ": 9567,
      "åıŁ": 9568,
      "äºĨè¿Ļä¸ª": 9569,
      "ä¸įçŃī": 9570,
      "ä¸įéĺ²": 9571,
      "ä¸ĢæľĽ": 9572,
      "æĿ¥åİĨ": 9573,
      "çİ²": 9574,
      "éĤ£ä¸īä¸ª": 9575,
      "åİ»éĤ£": 9576,
      "æľīä½Ļ": 9577,
      "è¯´æĹ¶": 9578,
      "å¤§ä½ľ": 9579,
      "å¤§æĪĺ": 9580,
      "è¿ĻåĩłæĹ¥": 9581,
      "è§ģä¹ĭ": 9582,
      "ä¹Łè¿ĺ": 9583,
      "å°Ĩè¿ĩæĿ¥": 9584,
[...]
